{"merges": [["e", "</w>"], [",", "</w>"], ["t", "h"], ["s", "</w>"], ["a", "n"], ["i", "n"], ["d", "</w>"], ["े", "</w>"], ["ा", "</w>"], ["e", "r"], [".", "</w>"], ["o", "n"], ["ं", "</w>"], ["th", "e</w>"], ["ी", "</w>"], ["र", "</w>"], ["e", "n"], ["a", "l"], ["a", "r"], ["s", "t"], ["y", "</w>"], ["d", "i"], ["a", "t"], ["o", "r"], ["क", "े</w>"], ["्", "र"], ["e", "d</w>"], ["ा", "र"], ["I", "n"], ["त", "</w>"], ["o", "f"], ["म", "े"], ["an", "d</w>"], ["a", "</w>"], ["r", "e"], ["of", "</w>"], ["।", "</w>"], ["मे", "ं</w>"], ["i", "on"], ["In", "di"], ["ह", "ै"], ["i", "t"], ["ు", "</w>"], ["i", "c"], ["्", "य"], ["్", "ర"], ["in", "g"], ["न", "</w>"], ["t", "</w>"], ["al", "</w>"], ["क", "</w>"], ["o", "</w>"], ["in", "</w>"], ["भ", "ार"], ["ా", "ర"], ["र", "्"], ["ా", "ల"], ["o", "m"], ["an", "</w>"], ["ing", "</w>"], ["o", "u"], ["ि", "य"], ["ो", "ं</w>"], ["औ", "र</w>"], ["a", "s</w>"], ["er", "</w>"], ["स", "्"], ["t", "o</w>"], ["क", "ी</w>"], ["ి", "</w>"], ["प", "्र"], ["भार", "त</w>"], ["क", "ा</w>"], ["e", "c"], ["e", "s</w>"], ["u", "r"], ["य", "</w>"], ["1", "9"], ["स", "े</w>"], ["ో", "</w>"], ["ो", "</w>"], ["ా", "</w>"], ["क", "्"], ["ion", "</w>"], ["th", "</w>"], ["స", "్"], ["र", "ा"], ["i", "s"], ["s", ",</w>"], ["व", "ि"], ["न", "े</w>"], ["0", "0"], ["్", "య"], ["है", "।</w>"], ["l", "y</w>"], ["st", "</w>"], ["en", "t"], ["ल", "</w>"], ["ం", "</w>"], ["i", "l"], ["h", "</w>"], ["T", "h"], ["e", "m"], ["న", "్"], ["Indi", "a</w>"], ["ि", "</w>"], ["o", "l"], ["a", "m"], ["న", "</w>"], ["स", "ा"], ["ం", "ద"], ["ी", "य</w>"], ["म", "ा"], ["ప", "్ర"], ["u", "l"], ["ద", "ే"], ["i", "s</w>"], ["దే", "శ"], ["ి", ".</w>"], ["न", "्"], ["ి", "క"], ["or", "</w>"], ["ల", "ో</w>"], ["स", "ं"], ["ర", "్"], ["क्", "ष"], ["s", ".</w>"], ["r", "i"], ["l", "i"], ["భ", "ార"], ["ು", "</w>"], ["భార", "త"], ["ि", "क</w>"], ["त", "्"], ["r", "a"], ["o", "w"], ["er", "n"], ["क", "ा"], ["a", "s"], ["्य", "</w>"], ["ण", "</w>"], ["म", "</w>"], ["Th", "e</w>"], ["en", "t</w>"], ["ಿ", "</w>"], ["e", "l"], ["न", "ा"], ["त", "ा</w>"], ["b", "y</w>"], ["Indi", "a"], ["रा", "ज"], ["क", "ो</w>"], ["2", "0"], ["i", "r"], ["c", "h"], ["भ", "ा"], ["ಾ", "ರ"], ["ह", "ु"], ["c", "on"], ["s", "i"], ["o", "v"], ["o", "p"], [";", "</w>"], [")", "</w>"], ["द", "े"], ["್", "ರ"], ["Indi", "an</w>"], ["s", "u"], ["a", "g"], ["स", "</w>"], ["d", "u"], ["थ", "ा</w>"], ["w", "i"], ["है", "ं"], ["व", "</w>"], ["ड", "़"], ["ज", "ा"], ["e", "a"], ["న్", "న"], ["ం", "గ"], ["ు", "ల"], ["i", "v"], ["u", "n"], ["e", "t"], ["'", "s</w>"], ["व", "ा"], ["ई", "</w>"], ["w", "h"], ["ic", "</w>"], ["en", "</w>"], ["e", "x"], ["द", "्"], ["ా", "య"], ["ದ", "</w>"], ["i", "st"], ["ం", "చ"], ["ह", "ा"], ["प", "र</w>"], ["%", "</w>"], ["್", "ಯ"], ["प", "ा"], ["त", "्र"], ["ా", "త"], ["క", "్"], ["भार", "त"], ["न", "ा</w>"], ["द", "</w>"], ["w", "as</w>"], ["d", "e"], ["0", "</w>"], ["ాల", "ు</w>"], ["िय", "ा"], ["a", "c"], ["వ", "ి"], ["ంద", "ి.</w>"], ["त", "ि</w>"], ["wi", "th</w>"], ["u", "t"], ["i", "m"], ["್", "ತ"], ["ೆ", "</w>"], ["in", "c"], ["f", "or"], ["e", "ar"], ["क", "र"], ["िय", "ा</w>"], ["ि", "त</w>"], ["न", "ि"], ["on", "g"], ["an", "g"], ["ಲ", "್"], ["s", "p"], ["r", "om"], ["o", "c"], ["a", "b"], ["ern", "</w>"], ["भारत", "ीय</w>"], ["दे", "श"], ["on", "</w>"], ["at", "ion</w>"], ["a", "d"], ["్", "ట"], ["ర", "ా"], ["ग", "</w>"], ["ಭ", "ಾರ"], ["हैं", "।</w>"], ["त", "ा"], ["ಭಾರ", "ತ"], ["श", "ा"], ["e", "st"], ["1", "</w>"], ["ब", "ा"], ["त", "था</w>"], ["u", "s"], ["i", "g"], ["ಗ", "ಳ"], ["्", "ट"], ["ह", "ि"], ["भ", "ी</w>"], ["p", "l"], ["at", "</w>"], ["ం", "డ"], ["क", "ार"], ["y", ",</w>"], ["er", "e</w>"], ["ీ", "య"], ["భారత", "దేశ"], ["ह", "</w>"], ["स", "म"], ["ल", "ा"], ["ं", "ग"], ["व", "र्"], ["थ", "ा"], ["ए", "क</w>"], ["v", "er"], ["rom", "</w>"], ["h", "a"], [":", "</w>"], ["ಲ್", "ಲ"], ["ు", ",</w>"], ["p", "ar"], ["h", "as</w>"], ["f", "rom</w>"], ["్", "ల"], ["ద", "్"], ["ic", "h</w>"], ["ా", "న"], ["త", "్"], ["స్", "త"], ["m", "a"], ["il", "l"], ["at", "ion"], ["In", "</w>"], ["20", "1"], ["ి", "ంచ"], ["र", "ू"], ["म", "ि"], ["ज", "ि"], ["ए", "</w>"], ["t", "ion"], ["e", "s"], ["an", "c"], ["य", "ा"], ["प", "र"], ["wh", "ich</w>"], ["re", "s"], ["p", "r"], ["o", "s"], ["ಂ", "ದ"], ["ీయ", "</w>"], ["है", "</w>"], ["प", "ू"], ["u", "m"], ["o", "d"], ["al", "ly</w>"], ["al", "l"], ["ం", "త"], ["क", "र</w>"], ["ల", "ు</w>"], ["्य", "ा"], ["श", "्"], ["म", "ु"], ["प", "</w>"], ["con", "t"], ["c", "om"], ["b", "e"], ["an", "d"], ["a", "st"], ["ಲ್ಲ", "ಿ</w>"], ["ರ", "್"], ["ి", "న</w>"], ["स", "र"], ["य", "ा</w>"], ["r", "it"], ["e", "s,</w>"], ["ನ", "್"], ["ే", "</w>"], ["ిక", "</w>"], ["ం", "లో</w>"], ["द", "ी</w>"], ["अ", "न"], ["ul", "t"], ["u", "d"], ["l", "e</w>"], ["ic", "al</w>"], ["f", "or</w>"], ["en", "c"], ["e", ",</w>"], ["ु", "</w>"], ["त", "े</w>"], ["का", "र</w>"], ["i", "es</w>"], ["ు", ".</w>"], ["ध", "ा"], ["t", "ed</w>"], ["s", "h"], ["it", "s</w>"], ["c", "l"], ["at", "e</w>"], ["ou", "n"], ["l", "ar"], ["India", "'s</w>"], ["00", "</w>"], ["్", "</w>"], ["స్", "థ"], ["న", "ి"], ["ह", "ो"], ["ल", "ि"], ["भा", "ष"], ["त", "ि"], ["t", "s</w>"], ["i", "d"], ["c", "ent"], ["ತ", "್ತ"], ["ి", "ంది.</w>"], ["ర", "ి"], ["గ", "ా</w>"], ["ం", "ట"], ["त", "क</w>"], ["w", "or"], ["w", "ere</w>"], ["e", "st</w>"], ["ಿ", "ಯ"], ["ల", "ో"], ["మ", "ు"], ["पू", "र्"], ["ट", "</w>"], ["क", "े"], ["इ", "स"], ["ं", "ध"], ["m", "ar"], ["ಾ", "ಗ"], ["క", "ు"], ["१", "९"], ["सा", "थ"], ["स", "े"], ["ष", "्ट"], ["s", "e"], ["for", "m"], ["e", "d"], ["c", "o"], ["प", "्"], ["न", "े"], ["ज", "न"], ["क्ष", "ि"], ["क", "ि"], ["ं", "त्र"], ["t", "er</w>"], ["lar", "g"], ["l", "at"], ["en", "d"], ["ec", "on"], ["ar", "e</w>"], ["a", "in"], ["a", ",</w>"], ["ನ", "</w>"], ["त", "ी</w>"], ["क्ष", "े"], ["u", "re"], ["t", "er"], ["it", "y</w>"], ["i", "al</w>"], ["i", "</w>"], ["e", ".</w>"], ["ar", "</w>"], ["ಿ", "ದ"], ["ಸ", "್"], ["ూ", "డ"], ["ాయ", "ి.</w>"], ["స", "ం"], ["న", "ి</w>"], ["ी", "न</w>"], ["शा", "स"], ["ल", "ी</w>"], ["देश", "</w>"], ["द", "क्षि"], ["उ", "त्"], ["t", "r"], ["m", "ent</w>"], ["l", "ow"], ["g", "h"], ["ಂ", "ತ"], ["ీ", "</w>"], ["న", "ు</w>"], ["हि", "न्"], ["साथ", "</w>"], ["द", "ा"], ["त्", "र</w>"], ["ँ", "</w>"], ["p", "or"], ["p", "er"], ["ong", "</w>"], ["m", "in"], ["is", "m"], ["19", "6"], ["వ", "ా"], ["्र", "े"], ["ओ", "ं</w>"], ["ov", "ern"], ["ou", "r"], ["o", "g"], ["k", "</w>"], ["ಿ", "ಸ"], ["ಸ", "ಂ"], ["ರ", "</w>"], ["క్", "ష"], ["ष", "</w>"], ["ल", "ो"], ["बा", "द</w>"], ["न", "ी</w>"], ["v", "e</w>"], ["iv", "e</w>"], ["e", "s.</w>"], ["a", "y"], ["C", "h"], ["ి", "త"], ["స", "ా"], ["త", "ి"], ["्य", "ों</w>"], ["स", "ि"], ["दक्षि", "ण</w>"], ["ढ", "़"], ["क", "ृ"], ["u", "p"], ["in", "du"], ["at", "ed</w>"], ["as", "s"], ["ar", "y</w>"], ["7", "</w>"], ["4", "</w>"], ["2", "</w>"], ["్య", "</w>"], ["ల", "</w>"], ["ంగ", "ా</w>"], ["ी", "ं</w>"], ["ी", ",</w>"], ["स", "ब"], ["सब", "से</w>"], ["य", "ह</w>"], ["प्र", "ा"], ["त", "र"], ["अ", "ध"], ["re", "g"], ["econ", "om"], ["du", "c"], ["b", "ec"], ["a", "p"], ["a", "k"], ["ೆ", ".</w>"], ["ಿ", "ಕ"], ["క", "ు</w>"], ["य", "ु"], ["मु", "ख"], ["ब", "हु"], ["ब", "</w>"], ["y", ".</w>"], ["ur", "ing</w>"], ["o", "t"], ["n", "</w>"], ["i", ",</w>"], ["g", "r"], ["f", "ter</w>"], ["C", "E"], ["19", "5"], [")", ",</w>"], ["ಿ", "ತ"], ["్", "చ"], ["స", "ి"], ["ప", "ా"], ["త", "ర"], ["క", "</w>"], ["ం", ",</w>"], ["०", "</w>"], ["प", "ु"], ["त", "र</w>"], ["जि", "स"], ["ज", "</w>"], ["च", "</w>"], ["n", "or"], ["m", "ill"], ["in", "to</w>"], ["cent", "ur"], ["India", ",</w>"], ["2", "00"], ["ೆ", "ಯ"], ["ನ್", "ನ"], ["భ", "ా"], ["स्", "था"], ["रू", "प</w>"], ["र", "ह"], ["द्", "ध"], ["अ", "प"], ["ंग", "्रे"], ["u", "ag"], ["t", "ra"], ["st", "it"], ["ang", "uag"], ["an", "y</w>"], ["am", "e</w>"], ["6", "</w>"], ["್", "ಟ"], ["ుల", "ు</w>"], ["ష", "్ట"], ["्र", "ा"], ["ी", "।</w>"], ["है", ",</w>"], ["स्", "व"], ["स्", "ता"], ["राज", "्य</w>"], ["ब", "ंध"], ["ध", "र्"], ["क", "ि</w>"], ["ं", "ड"], ["su", "b"], ["ir", "</w>"], ["g", "overn"], ["e", "ly</w>"], ["b", "u"], ["8", "</w>"], ["00", "0</w>"], ["ಕ", "್"], ["ార", "్"], ["రా", "జ"], ["మ", "ై"], ["ప్ర", "ా"], ["న్", "న</w>"], ["జ", "ాత"], ["క", "ూడ"], ["र्", "थ"], ["रा", "ष्ट"], ["भाष", "ा"], ["द्", "व"], ["क", "िया</w>"], ["p", "op"], ["m", "o"], ["g", "en"], ["19", "9"], ["19", "4"], ["ಿ", "ಂ"], ["ನ್ನ", "ು</w>"], ["ಗಳ", "ು</w>"], ["ు", "త"], ["న", "ా"], ["క", "్ర"], ["క", "ో"], ["सर", "कार</w>"], ["श", "</w>"], ["y", "ear"], ["s", "c"], ["min", "ist"], ["l", "anguag"], ["inc", "l"], ["f", "ir"], ["d", "er"], ["c", "h</w>"], ["H", "indu"], ["ು", ".</w>"], ["ಭಾರತ", "ದ</w>"], ["ನ", "ೇ"], ["మ", "ొ"], ["న", "ు"], ["ట", "్ట"], ["చ", "్చ"], ["िय", "ों</w>"], ["सा", "म"], ["वि", "श्"], ["ल", "्"], ["द", "्र"], ["wor", "l"], ["w", "e"], ["w", "</w>"], ["th", "e"], ["stit", "ut"], ["st", "r"], ["re", "c"], ["q", "u"], ["pop", "ul"], ["p", "ri"], ["li", "g"], ["it", "</w>"], ["f", "l"], ["d", "ec"], ["3", "</w>"], ["ರ", "ಾ"], ["ಪ", "್ರ"], ["ಪ", "ಾ"], ["ದ", "ಲ್ಲಿ</w>"], ["ತ್ತ", "ು</w>"], ["ಖ", "್ಯ"], ["హ", "ి"], ["భారత", "</w>"], ["ఉ", "న్న"], ["े", "ं</w>"], ["र", "ि"], ["म", "्"], ["ज", "ो</w>"], ["क", "ु"], ["th", "er</w>"], ["s", "y"], ["p", "h"], ["ou", "th"], ["nor", "th"], ["incl", "ud"], ["fir", "st</w>"], ["ex", "t"], ["b", "o"], ["an", "s"], ["a", "v"], ["A", "si"], ["5", "</w>"], ["ి", "న"], ["ాల", "</w>"], ["వ", "్య"], ["ల", "్ల"], ["ల", "ి"], ["ర", "ై"], ["ప", "ే"], ["క", "ా"], ["हु", "आ"], ["शास", "न</w>"], ["ब", "ड़"], ["प्", "त</w>"], ["नि", "र्"], ["न", "ों</w>"], ["च", "ु"], ["ग", "ा"], ["अन", "ु"], ["ं", ",</w>"], ["w", "est"], ["ur", "e</w>"], ["sp", "ec"], ["re", "as"], ["r", "at"], ["ou", "s</w>"], ["m", "e"], ["el", "ec"], ["anc", "e</w>"], ["\"", "</w>"], ["ಾ", "</w>"], ["ವ", "</w>"], ["ದ", "ೇ"], ["ూ", "</w>"], ["ిక", "ి</w>"], ["ష్ట", "్ర"], ["వ", "ాత"], ["వ", "</w>"], ["రా", "ష్ట్ర"], ["ఈ", "</w>"], ["అ", "ధ"], ["ो", "ड़"], ["ह", "र"], ["ल", "े"], ["राष्ट", "्र"], ["म", "ंत्र"], ["भ", "ू"], ["पूर्", "व</w>"], ["द", "ि"], ["जा", "ता</w>"], ["ज", "़"], ["च", "ा"], ["क्षे", "त्र</w>"], ["आ", "ध"], ["us", "ed</w>"], ["sy", "st"], ["syst", "em"], ["s", "o</w>"], ["s", "er"], ["ou", "th</w>"], ["ou", "g"], ["oug", "h</w>"], ["m", "or"], ["m", "od"], ["m", "ent"], ["f", "f"], ["d", "uring</w>"], ["d", "h"], ["bec", "ame</w>"], ["b", "e</w>"], ["India", ".</w>"], ["–", "</w>"], ["ವ", "ಿ"], ["ಮ", "ತ್ತು</w>"], ["ದೇ", "ಶ"], ["ಜ", "ನ"], ["ుల", "ు,</w>"], ["ార", "ు.</w>"], ["వ", "ర"], ["వ", "చ్చ"], ["ల", "్"], ["భారత", "ీయ</w>"], ["ద్", "ధ"], ["ద్", "ద"], ["ం", "లో"], ["ो", "ल"], ["िया", "।</w>"], ["स्", "कृ"], ["विश्", "व</w>"], ["ल", "े</w>"], ["प", "ार"], ["ज", "ी"], ["च", "ीन</w>"], ["च", "ि"], ["के", "ं"], ["इ", "स</w>"], ["v", "ed</w>"], ["u", "b"], ["th", "em"], ["t", "ion</w>"], ["par", "t"], ["om", "e</w>"], ["l", "e"], ["is", "h</w>"], ["ion", "s</w>"], ["ha", "ve</w>"], ["gen", "er"], ["cont", "in"], ["bu", "t</w>"], ["be", "en</w>"], ["ar", "t"], ["al", "so</w>"], ["a", "st</w>"], ["ಿದ", "ೆ.</w>"], ["ి", ",</w>"], ["ా", "బ"], ["భారతదేశ", "ం</w>"], ["ప", "ు"], ["ప", "ాల"], ["జాత", "ీయ</w>"], ["క", "ొ"], ["ంత", "్ర"], ["स्", "थ"], ["स्", "त"], ["स", "मा"], ["ष", "्"], ["व", "्य"], ["राज", "्यों</w>"], ["या", "।</w>"], ["म", "हा"], ["ब", "ी"], ["ब", "ना"], ["ब", "ढ़"], ["न", "ी"], ["धा", "न</w>"], ["देश", "ों</w>"], ["su", "ch</w>"], ["re", "lig"], ["ong", "res"], ["n", "i"], ["n", "e"], ["mo", "st</w>"], ["m", "p"], ["m", "e</w>"], ["ha", "d</w>"], ["f", "ic"], ["enc", "e</w>"], ["ear", "</w>"], ["di", "tion"], ["com", "m"], ["c", "ast"], ["C", "ongres"], ["20", "2"], ["19", "7"], ["1", ","], ["ಿಂ", "ದ</w>"], ["ಾ", "ನ"], ["ಸಂ", "ಖ್ಯ"], ["ರ", "ು"], ["ಮ", "ು"], ["ಭಾರತ", "</w>"], ["ಕ", "ೋ"], ["ాల", "ు,</w>"], ["మ", "ార్"], ["ప", "ు</w>"], ["ప", "ార"], ["త", "ి</w>"], ["త", "</w>"], ["ह", "ीं</w>"], ["सम", "य</w>"], ["सं", "घ"], ["स", "द"], ["र", "ु"], ["मुख", "</w>"], ["मि", "ल"], ["प्र", "मुख</w>"], ["द्ध", "</w>"], ["ट", "ि"], ["का", "ल</w>"], ["क", "्र"], ["क", "र्"], ["ए", "श"], ["उ", "प"], ["अन", "्य</w>"], ["worl", "d"], ["un", "d"], ["t", "w"], ["st", "at"], ["r", "ul"], ["pr", "o"], ["p", "re"], ["p", "ol"], ["n", "um"], ["mor", "e</w>"], ["ma", "j"], ["l", "d</w>"], ["inc", "reas"], ["er", "g"], ["en", "g"], ["e", "p"], ["de", "v"], ["d", "ing</w>"], ["an", "s</w>"], ["a", "y</w>"], ["1", ",</w>"], ["್", "ಚ"], ["ೂ", "</w>"], ["ಹ", "ೆ"], ["ಸ", "ಾ"], ["ಕೋ", "ಟ"], ["్", "‌"], ["శ", "ా"], ["వ్య", "వ"], ["ద", "ి</w>"], ["ట", "ి"], ["ఉ", "ంది.</w>"], ["ो", "ग</w>"], ["हैं", ",</w>"], ["हिन्", "दी</w>"], ["ह", "ो</w>"], ["सा", "र</w>"], ["स", "ै"], ["स", "ी</w>"], ["वर्", "ष</w>"], ["लि", "ए</w>"], ["म", "ी"], ["ना", "म</w>"], ["द्", "र</w>"], ["द", "ो</w>"], ["ग", "या</w>"], ["ई", "।</w>"], ["ver", "s"], ["ur", "al</w>"], ["tw", "o</w>"], ["s", "outh"], ["r", "ic"], ["pri", "me</w>"], ["p", "e"], ["ov", "er</w>"], ["mill", "ion</w>"], ["li", "m"], ["larg", "est</w>"], ["ig", "h"], ["i", "o"], ["gr", "ow"], ["govern", "ment</w>"], ["g", "re"], ["er", "s</w>"], ["e", "-"], ["d", "om"], ["c", "oun"], ["bo", "th</w>"], ["an", "t</w>"], ["a", "fter</w>"], ["S", "outh</w>"], ["19", "8"], ["್", "</w>"], ["ವ", "ಾಗ"], ["ಂ", "ಡ"], ["ు", "గ"], ["ా", "న్"], ["వ", "ే"], ["ము", "ఖ"], ["మ", "ా"], ["ప", "ంచ"], ["ణ", "</w>"], ["క", "ే"], ["క", "ి"], ["క", "ాల"], ["ఎ", "న్న"], ["ఉన్న", "ాయి.</w>"], ["२", "०"], ["्य", "ा</w>"], ["िय", "े</w>"], ["है", "ं</w>"], ["हिन्", "द"], ["ह", "ी</w>"], ["से", "ना</w>"], ["सं", "स्कृ"], ["श्", "चि"], ["श", "ु"], ["व", "ों</w>"], ["ल", "य</w>"], ["र्", "व"], ["मा", "न</w>"], ["मा", "न"], ["ब", "्"], ["प", "श्चि"], ["न्", "त"], ["धर्", "म</w>"], ["द", "्य"], ["द", "श"], ["था", "।</w>"], ["च", "्"], ["क्ष", "ा</w>"], ["क्", "त</w>"], ["कर", "ने</w>"], ["अध", "ि"], ["we", "en</w>"], ["v", "i"], ["ur", "b"], ["tra", "dition"], ["th", "at</w>"], ["spec", "i"], ["s", "oc"], ["mod", "ern</w>"], ["l", "ed</w>"], ["il", "</w>"], ["et", "ween</w>"], ["e", "ver"], ["di", "vers"], ["com", "p"], ["c", "ult"], ["c", "a"], ["be", "g"], ["b", "er</w>"], ["ation", "al</w>"], ["an", "t"], ["U", "n"], ["E", "mp"], ["Congres", "s</w>"], ["B", "CE"], ["201", "1</w>"], ["1", "8"], ["1", "."], ["-", "</w>"], [",", "000</w>"], ["ಸ್", "ಥ"], ["ರ", "ಿ"], ["ಜನ", "ಸಂಖ್ಯ"], ["ಜ", "್ಯ"], ["ై", "న"], ["ె", "ండ"], ["హి", "ంద"], ["వ్యవ", "స్థ"], ["వ", "ార"], ["ర్", "వ"], ["మార్", "గ"], ["ప", "ె"], ["త్", "వ"], ["చ", "ె"], ["ం", "బ"], ["ार", "ा</w>"], ["हो", "ता</w>"], ["हु", "ई</w>"], ["स्व", "त"], ["स्ता", "न</w>"], ["सै", "न"], ["स", "ू"], ["व्य", "व"], ["र", "े"], ["र", "ा</w>"], ["म", "ै"], ["म", "ध"], ["पा", "कि"], ["प", "ह"], ["न", "हीं</w>"], ["त", "िक</w>"], ["चु", "ना"], ["कार", "ण</w>"], ["क", "ई</w>"], ["इस", "के</w>"], ["अध", "िक</w>"], ["अ", "ंग्रे"], ["ure", "s</w>"], ["u", "cl"], ["the", "ir</w>"], ["th", "is</w>"], ["si", "d"], ["r", "u"], ["r", "al</w>"], ["por", "t"], ["ol", "og"], ["o", "k"], ["li", "f"], ["ism", "</w>"], ["is", "h"], ["f", "ol"], ["ar", "m"], ["M", "a"], ["In", "d"], ["B", "ud"], ["B", "rit"], ["A", "c"], [")", ".</w>"], ["ೊ", "ಂದ"], ["ಮ", "</w>"], ["ಟ", "್ಟ"], ["ಗ", "ೆ</w>"], ["ಕ್", "ಷ"], ["ీ", ",</w>"], ["ిక", "ార"], ["ాన", "ికి</w>"], ["ర", "ు</w>"], ["మొ", "ద"], ["బ", "డ"], ["ప", "ర"], ["కూడ", "ా</w>"], ["క", "ృ"], ["క", "ార"], ["అధ", "ికార"], ["५", "</w>"], ["४", "</w>"], ["्रा", "ज"], ["ार", "ी</w>"], ["साम", "्राज"], ["सं", "वि"], ["संवि", "धान</w>"], ["स", "ा</w>"], ["वर्", "ष"], ["ल", "ग"], ["मा", "ण</w>"], ["मंत्र", "ी</w>"], ["म", "ो"], ["भाषा", "ओं</w>"], ["पाकि", "स्तान</w>"], ["न", "्या"], ["धा", "न"], ["दे", "ख"], ["जा", "ति</w>"], ["ज", "ी</w>"], ["ग", "ु"], ["ग", "या।</w>"], ["ग", "ण"], ["कर", "ोड़"], ["क", "ॉ"], ["year", "s</w>"], ["west", "ern</w>"], ["su", "p"], ["ri", "b"], ["reg", "ion"], ["ou", "s"], ["o", "t</w>"], ["o", "b"], ["o", "-"], ["m", "any</w>"], ["ism", ",</w>"], ["ir", "e</w>"], ["inc", "e</w>"], ["ic", "s</w>"], ["g", "l"], ["f", "e"], ["e", "t</w>"], ["d", "ed</w>"], ["cl", "ass"], ["b", "etween</w>"], ["ation", ",</w>"], ["am", "ent"], ["all", "</w>"], ["ak", "ist"], ["P", "akist"], ["C", "on"], ["Bud", "dh"], ["7", ",</w>"], ["ಾ", "ನ</w>"], ["ಷ", "್ಟ"], ["ಪಾ", "ಕ"], ["ತ", "ಿ</w>"], ["్ర", "</w>"], ["్", "మ"], ["ె", "ల"], ["స్థ", "ాన"], ["స", "భ"], ["వి", "ధ"], ["య", "ా</w>"], ["మ", "ధ"], ["భా", "ష"], ["ప్రా", "ంత"], ["ప్ర", "పంచ"], ["ప్ర", "ధ"], ["న", "ే"], ["ధ", "ిక</w>"], ["ద", "క్ష"], ["ట", "ి</w>"], ["క", "ర"], ["ంలో", "ని</w>"], ["ం", ".</w>"], ["िया", "ँ</w>"], ["ार", "्"], ["स्", "था</w>"], ["सम", "्"], ["सं", "बंध"], ["व्यव", "स्था</w>"], ["व", "े"], ["व", "ा</w>"], ["राष्ट्र", "ीय</w>"], ["य", "ू"], ["मै", "दा"], ["बी", "च</w>"], ["ब", "्र"], ["पार", "्ट"], ["द्व", "ारा</w>"], ["दश", "क</w>"], ["द", "िया</w>"], ["चुना", "वों</w>"], ["ग", "ठ"], ["ख", "्या</w>"], ["क्षे", "त्र"], ["उत्", "तर</w>"], ["अनु", "सार</w>"], ["world", "'s</w>"], ["ucl", "ear</w>"], ["ub", "l"], ["t", "im"], ["re", "p"], ["re", "a"], ["r", "ol"], ["ov", "er"], ["ou", "gh"], ["os", "e</w>"], ["on", "-"], ["north", "ern</w>"], ["m", "il"], ["l", "it"], ["l", "and"], ["it", "ed</w>"], ["ist", "or"], ["in", "di"], ["i", "st</w>"], ["ex", "p"], ["er", "ed</w>"], ["elec", "tion"], ["el", "l"], ["econom", "ic</w>"], ["e", "v"], ["e", "f"], ["ag", "e</w>"], ["ad", "e</w>"], ["I", "t</w>"], ["E", "ur"], ["A", "r"], ["A", "</w>"], ["6", "%</w>"], ["್ರ", "ಾ"], ["ಿಸ", "್ತ"], ["ಿಕ", "</w>"], ["ವ", "ಾ"], ["ವ", "ರ"], ["ಪಾಕ", "ಿಸ್ತ"], ["ನ್", "</w>"], ["్ర", "ా"], ["్", "డ"], ["ు", "గా</w>"], ["ి", "న్న</w>"], ["ా", "న</w>"], ["ా", ",</w>"], ["వా", "ణ"], ["వ", "ర్"], ["రై", "లు</w>"], ["మై", "న</w>"], ["భారతదేశ", "ంలో</w>"], ["పార", "్ట"], ["ప", "్"], ["ప", "రి"], ["న్న", "ి</w>"], ["దేశ", "ాల"], ["దేశ", "ం</w>"], ["దక్ష", "ి"], ["ద", "ి.</w>"], ["ద", "ాయ"], ["త్", "త"], ["తర", "</w>"], ["త", "్య"], ["త", "ో</w>"], ["డ", "ి"], ["చ", "ే"], ["క్ర", "ీ"], ["ం", "ధ"], ["८", "</w>"], ["२", "</w>"], ["्र", "ी"], ["ृ", "त्"], ["ू", "</w>"], ["सैन", "्य</w>"], ["सं", "ख्या</w>"], ["श", "ि"], ["लो", "क"], ["र", "ो"], ["य", "ोग</w>"], ["मे", "ं,</w>"], ["म", "ा</w>"], ["भू", "मि"], ["भा", "ज"], ["बहु", "त</w>"], ["फ", "़"], ["फ", "</w>"], ["प्रा", "चीन</w>"], ["प्र", "धान"], ["प्र", "देश</w>"], ["प", "ड़"], ["ने", "त"], ["नेत", "ृत्"], ["निर्", "माण</w>"], ["न", ",</w>"], ["ध", "ी"], ["द्व", "ी"], ["थ", "ी।</w>"], ["त", "्य"], ["त", "ी"], ["ण", "्"], ["च", "ल"], ["क्", "ति</w>"], ["कॉ", "ंग्रे"], ["क", "िया।</w>"], ["एश", "िया</w>"], ["ए", "व"], ["उ", "न"], ["आ", "र्थ"], ["urb", "an</w>"], ["u", "gh"], ["th", "an</w>"], ["t", ",</w>"], ["sub", "contin"], ["stitut", "ion</w>"], ["si", "g"], ["s", "ince</w>"], ["ra", "ph"], ["popul", "ation</w>"], ["pe", "op"], ["p", "ow"], ["ow", "</w>"], ["ou", "t</w>"], ["n", "ot</w>"], ["ma", "in"], ["lit", "er"], ["larg", "e</w>"], ["l", "ea"], ["k", "h"], ["it", "ary</w>"], ["ing", ",</w>"], ["increas", "ed</w>"], ["includ", "ing</w>"], ["in", "fl"], ["infl", "u"], ["in", "e</w>"], ["im", "al"], ["i", "an</w>"], ["h", "um"], ["h", "ar"], ["em", "erg"], ["el", "op"], ["ec", "t"], ["ea", "st</w>"], ["ea", "st"], ["di", "c"], ["d", "anc"], ["c", "re"], ["c", "or"], ["beg", "an</w>"], ["ation", "s</w>"], ["ang", "es</w>"], ["am", "ong</w>"], ["a", "in</w>"], ["C", "om"], ["Brit", "ish</w>"], ["B", "y</w>"], ["A", "n"], ["A", "l"], ["A", "fter</w>"], ["6", "."], ["1", "2"], ["್ರ", "ಿ"], ["್", "ದ"], ["ೆಯ", "</w>"], ["ಿ", "ಂದ"], ["ಹ", "ೊಂದ"], ["ಕ್", "ಕ"], ["ు", "న్న"], ["ు", "కు"], ["రాజ", "్య"], ["ర", "ెండ"], ["ర", "ు"], ["భా", "గ"], ["భ", "ు"], ["ప్ర", "భు"], ["ప్ర", "జ"], ["నా", "భ"], ["న", "ే</w>"], ["ద", "ా"], ["ట", "్ల"], ["జ", "నాభ"], ["క్", "కు"], ["ఆ", "ర్"], ["అ", "య"], ["६", "</w>"], ["ी", "ल</w>"], ["िया", ",</w>"], ["हुआ", "।</w>"], ["हु", "ए</w>"], ["स्था", "प"], ["साम्राज", "्य</w>"], ["स", "भ"], ["श", "े"], ["व", "ीं</w>"], ["ल", "र</w>"], ["रह", "ा</w>"], ["र", "े</w>"], ["र", "ी</w>"], ["र", "ी"], ["मि", "ल</w>"], ["मा", "ण"], ["माण", "ु</w>"], ["म", ",</w>"], ["भाष", "ा</w>"], ["ब", "र</w>"], ["प्रधान", "मंत्री</w>"], ["प्र", "ति"], ["पश्चि", "म</w>"], ["पर", "माणु</w>"], ["प", "े"], ["न्या", "या"], ["न्", "ह"], ["ण", "ा"], ["ढ़", "</w>"], ["जा", "ती</w>"], ["ज", "ा</w>"], ["च", "ी</w>"], ["ग", "ी"], ["कॉंग्रे", "स</w>"], ["करोड़", "</w>"], ["क", "ो"], ["आर्थ", "िक</w>"], ["अ", "व"], ["अ", "र"], ["ंग", "ा</w>"], ["w", "ar"], ["v", "ing</w>"], ["und", "er</w>"], ["ubl", "ic</w>"], ["th", "ough</w>"], ["th", "er"], ["t", "en</w>"], ["st", "y"], ["par", "t</w>"], ["par", "li"], ["p", "er</w>"], ["og", "raph"], ["oc", "c"], ["n", "ed</w>"], ["minist", "er</w>"], ["m", "us"], ["m", "on"], ["m", "id"], ["low", "ing</w>"], ["l", "ong"], ["k", "rit"], ["is", "e</w>"], ["is", "ation</w>"], ["ic", "ally</w>"], ["i", "ent</w>"], ["h", "istor"], ["h", "i</w>"], ["gener", "al</w>"], ["et", "t"], ["em", "ent"], ["dev", "elop"], ["cast", "e</w>"], ["c", "t"], ["c", "our"], ["b", "as"], ["ar", "i"], ["ap", "p"], ["al", ",</w>"], ["ab", "le</w>"], ["ab", "l"], ["a", ".</w>"], ["U", "S"], ["US", "$"], ["M", "ugh"], ["Ch", "in"], ["9", "</w>"], ["5", ",</w>"], ["‌", "</w>"], ["೦", "೦"], ["ಿ", "ನ</w>"], ["ಹ", "ೋ"], ["ಸ", "ು"], ["ರ", "ೆ</w>"], ["ಯ", "</w>"], ["ಪಾಕಿಸ್ತ", "ಾನ</w>"], ["ನೇ", "</w>"], ["ನ", "ಾ"], ["ಂತ", "್ರ"], ["్య", "ం</w>"], ["ీ", "త"], ["ించ", "ింది.</w>"], ["ి", "ల్ల"], ["స్", "కృ"], ["సా", "ం"], ["వచ్చ", "ింది.</w>"], ["వ", "ె"], ["వ", "ీ"], ["వ", "ల"], ["ల", "ా"], ["రి", "గ"], ["మ", "ే"], ["మ", "ు</w>"], ["మ", "త"], ["పె", "ద్ద"], ["ప", "ో"], ["ప", "ూ"], ["ప", "డ"], ["చె", "ంద"], ["గ", "ు"], ["१९", "९"], ["ो", "ष"], ["ो", "ग"], ["हा", "ला"], ["सर", "कार"], ["स", "ह"], ["श", "ता"], ["शता", "ब्"], ["शताब्", "दी</w>"], ["वि", "का"], ["वर्ष", "ों</w>"], ["व", "ी</w>"], ["व", "ं"], ["ल", "िये</w>"], ["रू", "</w>"], ["र", "क्षा</w>"], ["ब्र", "ि"], ["बहु", "म"], ["प्रा", "प्त</w>"], ["पूर्", "ण</w>"], ["पह", "ले</w>"], ["पर", "ं"], ["प", "ी"], ["नेतृत्", "व</w>"], ["नि", "र"], ["न", "िक</w>"], ["द्वी", "प</w>"], ["द", "ो"], ["द", "र</w>"], ["ण्", "ड"], ["ट", "े"], ["जिस", "में</w>"], ["जन", "जाति</w>"], ["ज", "ै"], ["च्", "च</w>"], ["च", "ी"], ["गण", "राज्य</w>"], ["क्षेत्र", "ीय</w>"], ["कें", "द्र"], ["ओ", "र</w>"], ["उत्", "तर"], ["इ", "न</w>"], ["अर", "ब</w>"], ["अ", "न्"], ["un", "j"], ["unj", "ab"], ["um", "</w>"], ["ult", "an"], ["them", "at"], ["th", "r"], ["s", "ur"], ["r", "ate</w>"], ["pr", "ov"], ["parli", "ament"], ["oun", "d</w>"], ["or", "ld</w>"], ["or", "ity</w>"], ["on", "e</w>"], ["of", "fic"], ["num", "ber</w>"], ["ne", "w</w>"], ["n", "uclear</w>"], ["n", "on-"], ["mill", "en"], ["millen", "ni"], ["mil", "itary</w>"], ["mar", "k"], ["lat", "er</w>"], ["is", "ed</w>"], ["ion", ".</w>"], ["i", "re"], ["h", "er"], ["es", "e</w>"], ["er", "c"], ["em", "pl"], ["e", "an</w>"], ["d", "s</w>"], ["d", "r"], ["coun", "tr"], ["ca", "used</w>"], ["b", "r"], ["at", "ely</w>"], ["ans", "krit"], ["al", "it"], ["a", "w"], ["W", "orld</w>"], ["S", "t"], ["S", "anskrit"], ["P", "unjab"], ["Mugh", "al</w>"], ["M", "us"], ["Ind", "o-"], ["In", "du"], ["Eur", "op"], ["Emp", "ire</w>"], ["B", "eng"], ["194", "7,</w>"], ["1", "7"], ["್ಯ", "</w>"], ["್", "ವ"], ["ಿತ", "ು.</w>"], ["ಿ", "ರು"], ["ಹೆ", "ಚ"], ["ಹೆಚ", "್ಚ"], ["ಹ", "ಿಂದ"], ["ಸ", "ಿ"], ["ವ", "ರ್"], ["ಲ", "</w>"], ["ರ", "ಲ್ಲಿ</w>"], ["ಬ", "ೆ"], ["ಪ", "ೂ"], ["ನ", "ಂತ"], ["ತ", "ಂತ್ರ"], ["ಕ್ಕ", "ೆ</w>"], ["ಕ", "</w>"], ["ಂ", "ಚ"], ["్ర", "ె"], ["్ర", "ి"], ["ు", "వాత"], ["ు", "ంది.</w>"], ["స్త", "్ర"], ["శ", "్ర"], ["వాణ", "ా</w>"], ["వ", "ంట"], ["మార్గ", "ాలు</w>"], ["మధ", "్య</w>"], ["మ", "ి"], ["మ", "న"], ["ప్", "ప"], ["పే", "రు</w>"], ["ప", "ట్ట"], ["దక్షి", "ణ"], ["తర", "ువాత"], ["ట", "ు</w>"], ["జ", "రిగ"], ["జ", "న"], ["గ", "ర"], ["క్రీ", "డ"], ["క్", "క"], ["కే", "ంద"], ["ఒ", "క</w>"], ["ఉ", "న్న</w>"], ["ఉ", "ంట"], ["ఇ", "ండ"], ["७", "</w>"], ["्", "र</w>"], ["ि", "कार"], ["हा", "ँ</w>"], ["स्वत", "ंत्र"], ["स्वतंत्र", "ता</w>"], ["स्था", "न</w>"], ["स्थ", "ित</w>"], ["स्", "ट"], ["सा", "ल</w>"], ["सद", "स"], ["संस्कृ", "ति</w>"], ["संबंध", "</w>"], ["स", "ु"], ["स", ",</w>"], ["श", "न</w>"], ["वि", "ज"], ["वर्", "त"], ["व", "्या"], ["लग", "भ"], ["लगभ", "ग</w>"], ["ल", "ों</w>"], ["ल", "ी"], ["ल", "ा</w>"], ["राज", "्य"], ["राज", "नी"], ["यु", "क्त</w>"], ["म्", "भ"], ["मध", "्य"], ["म", "ौ"], ["म", "न"], ["भूमि", "का</w>"], ["भाषा", "ए"], ["ब्रि", "टि"], ["ब्रिटि", "श</w>"], ["बंध", "न</w>"], ["प्र", "भा"], ["प्", "ले"], ["प", "ै"], ["न्ह", "ें</w>"], ["नि", "भा"], ["दो", "नों</w>"], ["द", "ोल"], ["द", "ि</w>"], ["द", "र्"], ["जन", "संख्या</w>"], ["छ", "</w>"], ["चा", "र</w>"], ["ग", "र</w>"], ["कें", "द्र</w>"], ["कु", "ल</w>"], ["कु", "छ</w>"], ["कार", "्य"], ["क", "ों</w>"], ["क", "ह"], ["एव", "ं</w>"], ["इ", "ंड"], ["ः", "</w>"], ["wh", "o</w>"], ["v", "er</w>"], ["u", "</w>"], ["thr", "ough</w>"], ["system", "</w>"], ["soc", "ial</w>"], ["ser", "ved</w>"], ["sc", "ri"], ["s", "ome</w>"], ["s", "ol"], ["s", "ch"], ["s", ";</w>"], ["rit", "or"], ["rib", "ut"], ["relig", "i"], ["pro", "duc"], ["pow", "er</w>"], ["pol", "it"], ["per", "io"], ["perio", "d</w>"], ["peop", "le</w>"], ["ow", "n</w>"], ["ow", "ever"], ["owever", ",</w>"], ["our", "</w>"], ["o", "ther</w>"], ["o", "o"], ["o", ",</w>"], ["n", "o</w>"], ["n", "at"], ["maj", "or</w>"], ["ma", "themat"], ["m", "ov"], ["lif", "e</w>"], ["le", "g"], ["languag", "e</w>"], ["l", "oc"], ["l", "and</w>"], ["it", "i"], ["influ", "enc"], ["imal", "ay"], ["ic", ",</w>"], ["i", "ed</w>"], ["g", "ra"], ["fe", "at"], ["f", "in"], ["f", "am"], ["es", "s</w>"], ["er", ".</w>"], ["ed", ",</w>"], ["ec", "h"], ["e", "y</w>"], ["e", "ig"], ["e", "h"], ["divers", "ity</w>"], ["di", "sp"], ["di", "rec"], ["d", "e</w>"], ["co", "ok"], ["class", "ical</w>"], ["centur", "y</w>"], ["c", "ol"], ["c", "ar"], ["b", "ill"], ["b", "er"], ["at", "es</w>"], ["as", "h"], ["al", "s</w>"], ["a", "s,</w>"], ["S", "i"], ["S", "h"], ["Pakist", "an"], ["Mus", "lim"], ["I", "s"], ["H", "imalay"], ["C", "ent"], ["5", "0</w>"], ["4", "2"], ["3", ","], ["195", "0"], ["194", "7</w>"], ["%", ".</w>"], ["%", ",</w>"], ["%", "),</w>"], ["೧", "೯"], ["ೀ", "ಯ</w>"], ["ಿರು", "ವ</w>"], ["ಿ", "ಲ"], ["ಷ್ಟ", "್ರ"], ["ಶ", "್ಚ"], ["ವಾಗ", "ಿ</w>"], ["ಲ", "ಿ"], ["ರಾ", "ಜ್ಯ"], ["ಮ", "ಾರ"], ["ಮ", "ಾ"], ["ಪೂ", "ರ್"], ["ನೇ", "ಕ</w>"], ["ಧ", "ರ್"], ["ತ", "್ರ"], ["ಅ", "ನೇಕ</w>"], ["ಅ", "ತಿ</w>"], ["ಂತ", "</w>"], ["ಂ", "ಬ"], ["ై", "</w>"], ["ు", "కో"], ["ీ", "ర్"], ["ాత", "్ర"], ["స్త", "ుత"], ["స్త", "ాన్"], ["సా", "ధ"], ["స", "రి"], ["స", "ంగ"], ["వి", "స్త"], ["వ", "ై"], ["వ", "త"], ["ళ", "</w>"], ["ల", "ే"], ["రాజ", "క"], ["ర", "ో"], ["ర", "వాణా</w>"], ["ర", "ంగ"], ["మ", "ంత్ర"], ["మ", "</w>"], ["భారతదేశ", "</w>"], ["ప్రధ", "ాన</w>"], ["ప్ర", "స్తుత"], ["ప్ర", "దాయ"], ["పెద్ద", "</w>"], ["పా", "కి"], ["ణ", "ం</w>"], ["ట", "ిక"], ["జనాభ", "ా</w>"], ["గ", "ో"], ["కా", "ంగ"], ["కాంగ", "్రె"], ["క", "లి"], ["ఏ", "ర్"], ["ఎన్న", "ో</w>"], ["ఎ", "క్కు"], ["ఇ", "ది</w>"], ["ఇ", "తర</w>"], ["ం", ":</w>"], ["३", "</w>"], ["२०", "०"], ["१", "</w>"], ["े", "।</w>"], ["े", "क</w>"], ["ु", "निक</w>"], ["िय", "</w>"], ["िकार", "िक</w>"], ["ार", "म्भ"], ["हुआ", "</w>"], ["हि", "मा"], ["हाला", "ँ"], ["ह", "थ"], ["समा", "ज</w>"], ["सं", "युक्त</w>"], ["स", "ी"], ["स", "क"], ["शास", "ित</w>"], ["शा", "ं"], ["वि", "देश"], ["वा", "य"], ["ल", "ं"], ["यु", "द्ध</w>"], ["मे", "रि"], ["म", "ह"], ["बड़", "ा</w>"], ["ब", "द"], ["प्ले", "ट</w>"], ["प्र", "ारम्भ"], ["प्र", "कार</w>"], ["पार्ट", "ी</w>"], ["प", "ं"], ["न्त", "ु</w>"], ["ना", "ग"], ["न", "िय"], ["न", "व"], ["न", "द"], ["द", "ा</w>"], ["था", ",</w>"], ["ण", "ी</w>"], ["ण", "ा</w>"], ["ड", "ॉ"], ["ड", "</w>"], ["ट", "े</w>"], ["ट", "ी</w>"], ["जि", "न"], ["जा", "ते</w>"], ["ज", "ब"], ["घ", "ोष"], ["गठ", "बंधन</w>"], ["ग", "्र"], ["ग", "त</w>"], ["ग", "ंगा</w>"], ["ख", "ा"], ["के", "न्"], ["क", ",</w>"], ["ई", "सा</w>"], ["इस", "ी</w>"], ["आध", "ुनिक</w>"], ["आध", "िकारिक</w>"], ["अप", "ने</w>"], ["अप", "नी</w>"], ["अ", "र्थ"], ["अ", "मेरि"], ["अ", "प्र"], ["wor", "k"], ["w", "om"], ["ure", ".</w>"], ["un", "t"], ["ul", "ar</w>"], ["tr", "ans"], ["th", "re"], ["th", "ir"], ["ter", "ritor"], ["t", "ur"], ["t", "ech"], ["t", "a</w>"], ["s", "o"], ["s", "e</w>"], ["ric", "ult"], ["ri", "gh"], ["r", "ural</w>"], ["r", "oc"], ["polit", "ical</w>"], ["pl", "ac"], ["p", "t"], ["ow", "n"], ["ough", "t</w>"], ["os", "s</w>"], ["or", "ig"], ["om", "et"], ["o", "y"], ["o", "od"], ["n", "olog"], ["millenni", "um</w>"], ["ment", "s</w>"], ["maj", "ority</w>"], ["m", "an"], ["m", "ade</w>"], ["iv", "ed</w>"], ["it", "e</w>"], ["ion", ",</w>"], ["ing", "s</w>"], ["includ", "e</w>"], ["in", "v"], ["i", "es.</w>"], ["hum", "an</w>"], ["g", "a"], ["form", "</w>"], ["f", "</w>"], ["er", "al</w>"], ["ent", ",</w>"], ["en", "su"], ["em", "ent</w>"], ["ear", "ly</w>"], ["e", "w"], ["e", "g"], ["e", ";</w>"], ["dom", "in"], ["de", "p"], ["d", "le</w>"], ["d", "ance</w>"], ["cor", "ding</w>"], ["cont", "rol"], ["cont", "ribut"], ["ch", "ang"], ["centur", "y,</w>"], ["bill", "ion</w>"], ["b", "ir"], ["ar", "t</w>"], ["ar", "ea"], ["ar", "ch"], ["an", "k"], ["ag", "ricult"], ["a", "j"], ["P", "lat"], ["P", "</w>"], ["J", "an"], ["Hindu", "</w>"], ["G", "and"], ["E", "n"], ["D", "el"], ["Com", "p"], ["A", "m"], ["4", "0"], ["4", "%</w>"], ["3", "0"], ["3", "."], ["2", "."], ["1", "5"], ["1", "0"], ["-", "largest</w>"], [")", ";</w>"], ["ೆ", "ಂದ"], ["ೆಂದ", "ರೆ</w>"], ["ಿಲ", "ಿಯ"], ["ಿಯ", "</w>"], ["ಿದ", "್ದ"], ["ಿ", "ಗೆ</w>"], ["ಾ", "ಂ"], ["ಹೆ", "ಸ"], ["ಶ್ಚ", "ಿ"], ["ಶ", "ತ"], ["ವ", "್ಯ"], ["ವ", "ನ್ನು</w>"], ["ಲ", "ಕ್ಷ"], ["ರ್", "ಥ"], ["ರಾ", "ಷ್ಟ್ರ"], ["ಮ", "ೊ"], ["ಪ", "ಶ್ಚಿ"], ["ಣ", "</w>"], ["ಡ", "್"], ["ಡ", "</w>"], ["ಜನಸಂಖ್ಯ", "ೆ</w>"], ["ಗ", "್"], ["ಕೋಟ", "ಿ"], ["ಈ", "</w>"], ["ಂ", "ಭ"], ["్", "ద"], ["ీ", ";</w>"], ["ిత", "్ర"], ["ిత", "</w>"], ["ించ", "ిన</w>"], ["ి", "యా</w>"], ["ా", "వర"], ["హ", "ద్ద"], ["స్", "</w>"], ["సి", "ని"], ["సిని", "మ"], ["సా", "మ"], ["సరి", "హద్ద"], ["సం", "స్కృ"], ["స", "ు"], ["శా", "స్త్ర"], ["ల", "్</w>"], ["రాష్ట్ర", "ప"], ["య", "ో"], ["య", "</w>"], ["మై", "న"], ["ముఖ", "్య"], ["మ", "హ"], ["మ", "ర"], ["భ", "ూ"], ["భ", "ి"], ["బ", "ె"], ["బ", "హ"], ["ప్రా", "చ"], ["ప్రభు", "త్వ"], ["ను", "ండ"], ["ద", "ార"], ["చ", "ిన్న</w>"], ["గ", "ల</w>"], ["ఖ", "్య"], ["క్ర", "మ"], ["క్", "</w>"], ["ఒ", "క"], ["ఉ", "ప"], ["ఇ", "వ"], ["ఆర్", "ధిక</w>"], ["ఆ", "ధ"], ["అ", "త్య"], ["ంగ", "్ల"], ["१९", "८"], ["१९", "७"], ["०", "०</w>"], ["ै", "ली</w>"], ["ृ", "त</w>"], ["हो", "ती</w>"], ["हिमा", "लय</w>"], ["हर", "ी</w>"], ["ह", "र</w>"], ["स्त", "ृत</w>"], ["सभ", "ा</w>"], ["संघ", "</w>"], ["सं", "स"], ["संस", "द</w>"], ["स", "ो"], ["स", "श"], ["स", "र्व"], ["शे", "ष</w>"], ["शु", "रू</w>"], ["विदेश", "ी</w>"], ["विका", "स</w>"], ["वि", "स्तृत</w>"], ["वाय", "ु</w>"], ["वा", "द</w>"], ["वर्", "ग</w>"], ["व", "ै"], ["व", "ल</w>"], ["ल", "ग</w>"], ["रह", "े</w>"], ["र", "िक</w>"], ["र", "ख"], ["यु", "ग</w>"], ["य", "े</w>"], ["मैदा", "न</w>"], ["मे", "ं"], ["म", "ों</w>"], ["म", "ी</w>"], ["भाज", "प"], ["भाजप", "ा</w>"], ["भ", "ि"], ["बहुम", "त</w>"], ["बड़", "े</w>"], ["बड़", "ी</w>"], ["ब", "ै"], ["ब", "े"], ["ब", "न</w>"], ["पा", "लि"], ["पर", "ि"], ["प", "हा"], ["प", "र्व"], ["प", "रा"], ["न्", "न</w>"], ["धी", "रे</w>"], ["ध", "</w>"], ["द्य", "ोग"], ["दोल", "न</w>"], ["द", "ृ"], ["थ", "ी</w>"], ["ति", "हा"], ["त", "्य</w>"], ["डॉ", "लर</w>"], ["ड़", "ी</w>"], ["जिस", "के</w>"], ["ज़", "ी</w>"], ["ज", "ल"], ["गा", "ंध"], ["ग", "ो"], ["ख", "</w>"], ["क्ष", "</w>"], ["कर्", "ज</w>"], ["कर", "ना</w>"], ["कर", "ण</w>"], ["क", "ी।</w>"], ["ऊ", "ँ"], ["आ", "ग"], ["आ", "ं"], ["अंग्रे", "जी</w>"], ["अ", "लग</w>"], ["अ", "म"], ["अ", "फ"], ["अ", "ं"], ["ंड", "</w>"], ["wom", "en</w>"], ["w", "an"], ["w", "a"], ["v", "en"], ["ure", ",</w>"], ["ur", "r"], ["up", "</w>"], ["ul", "pt"], ["the", "y</w>"], ["ter", "m"], ["t", "ern"], ["subcontin", "ent</w>"], ["st", "ri"], ["speci", "ally</w>"], ["si", "st"], ["ser", "v"], ["sc", "ulpt"], ["s", "ett"], ["s", "econ"], ["s", "a"], ["ri", "ver</w>"], ["religi", "ous</w>"], ["r", "y</w>"], ["r", "on"], ["part", "y</w>"], ["parliament", "ary</w>"], ["p", "en"], ["p", "ain"], ["pain", "t"], ["ot", "ec"], ["orig", "in"], ["occ", "up"], ["o", "in"], ["me", "di"], ["mar", "ri"], ["liter", "ac"], ["l", "y,</w>"], ["l", "ong</w>"], ["l", "in"], ["k", "n"], ["iv", "es</w>"], ["ic", "i"], ["i", "f"], ["h", "ig"], ["h", "ea"], ["grow", "th</w>"], ["gre", "w</w>"], ["g", "an"], ["form", "ed</w>"], ["f", "ig"], ["f", "ac"], ["ent", "s</w>"], ["en", "d</w>"], ["em", "oc"], ["eh", "ru"], ["ed", ".</w>"], ["econom", "y</w>"], ["e", "th"], ["e", "specially</w>"], ["e", "qu"], ["di", "v"], ["di", "ff"], ["dep", "end"], ["d", "ra"], ["d", "am"], ["control", "</w>"], ["con", "stitut"], ["co", "ast"], ["cent", "ral</w>"], ["c", "u"], ["c", "ru"], ["c", "ensu"], ["bas", "ed</w>"], ["b", "el"], ["b", "ac"], ["ar", ",</w>"], ["anc", "ient</w>"], ["an", "n"], ["am", "m"], ["W", "est"], ["Un", "ited</w>"], ["Th", "ere</w>"], ["N", "ehru"], ["J", "ain"], ["Indu", "s</w>"], ["I", "ts</w>"], ["H", "indi"], ["G", "overn"], ["G", "anges</w>"], ["Europ", "ean</w>"], ["En", "gl"], ["E", "ast</w>"], ["Cent", "ral</w>"], ["B", "J"], ["Asi", "a</w>"], ["6", ",</w>"], ["4", "."], ["3", "5"], ["2", "00</w>"], ["2", ","], ["196", "5,</w>"], ["195", "0</w>"], ["—", "</w>"], ["೪", "</w>"], ["೦", "</w>"], ["್ರಿ", "ಟ"], ["ೊ", "ಂಡ"], ["ೆಯ", "ನ್ನು</w>"], ["ೆ", "ಗೆ</w>"], ["ೆ", ",</w>"], ["ಾ", "ಷ"], ["ಹೊಂದ", "ಿದೆ.</w>"], ["ಹೆಚ್ಚ", "ು</w>"], ["ಸಾ", "ಮ"], ["ಸಂ", "ಪ"], ["ಸ", "್ತ"], ["ಸ", "ೆ</w>"], ["ವ", "ಲ"], ["ವಲ", "ಸೆ</w>"], ["ವ", "ಣ"], ["ಳ", "ಿತ"], ["ಲಕ್ಷ", "</w>"], ["ಲ", "ಾ"], ["ರ", "ು</w>"], ["ಮ", "ಿಲಿಯ"], ["ಮ", "ಾನ"], ["ಭ", "ಾಷ"], ["ಬೆ", "ಳ"], ["ಬ", "್ರಿಟ"], ["ಪ್ರ", "ಪ"], ["ಪ್ರಪ", "ಂಚ"], ["ಪ್ರ", "ದೇಶ"], ["ಪೂರ್", "ವ</w>"], ["ಪಶ್ಚಿ", "ಮ</w>"], ["ಪ", "ಡ"], ["ಪ", "ಟ್ಟ"], ["ನಂತ", "ರ</w>"], ["ದ", "ಾ"], ["ಡ", "ಳಿತ"], ["ಟ್ಟ", "ು</w>"], ["ಗಳ", "ಲ್ಲಿ</w>"], ["ಗ", "ಣ"], ["ಇ", "ಂಡ"], ["ಆ", "ರ್ಥ"], ["్య", "ాల"], ["్య", "ాయ"], ["్", "లో</w>"], ["్", ",</w>"], ["ౌ", "కర"], ["ుల", "</w>"], ["ిక", ",</w>"], ["ాల", "్లో</w>"], ["ాల", "ో</w>"], ["ాల", "ను</w>"], ["ార", "ు</w>"], ["ాబ", "్ద"], ["హింద", "ూ"], ["హ", "ార"], ["హ", "దార"], ["స్", "వా"], ["స్", "వత"], ["సి", "ంధ"], ["సంగ", "ీత"], ["స", "ౌకర"], ["స", "ము"], ["స", "మా"], ["ష", "్"], ["శా", "ఖ"], ["విధ", "</w>"], ["వి", "విధ</w>"], ["ల్", "ప"], ["ల", "ు,</w>"], ["ల", "లో</w>"], ["ల", "కు</w>"], ["ల", "ం"], ["ర్", "</w>"], ["రాజక", "ీయ</w>"], ["ర", "హదార"], ["య", "ా"], ["మొద", "ల"], ["మొద", "టి</w>"], ["మ", "ె"], ["మ", "ూడ"], ["మ", "ీ"], ["మ", "ాత్ర"], ["బె", "ంగ"], ["బ", "్రి"], ["బ", "ా"], ["ప్ర", "ముఖ"], ["ప్ర", "తి"], ["ప్ప", "టిక"], ["పే", "ర్"], ["ప", "త"], ["ప", "ండ"], ["నుండ", "ి</w>"], ["న", "డి"], ["నడి", "ప"], ["ద్ధ", "ి</w>"], ["దేశ", "ాల</w>"], ["దేశ", "ంలోని</w>"], ["దేశ", "ంలో</w>"], ["ద", "్ర"], ["ఢ", "ిల్ల"], ["ట", "్</w>"], ["జ", "ాబ"], ["గ", "్"], ["గ", "ణ"], ["కో", "ర్"], ["కేంద", "్ర"], ["కాల", "ంలో</w>"], ["ఏర్", "పడ"], ["ఉ", "త్"], ["అత్య", "ధిక</w>"], ["ంత", "ో</w>"], ["९", "</w>"], ["२", "."], ["१९", "६"], ["१९", "५"], ["्री", "का</w>"], ["्रा", "ं"], ["्य", "ता</w>"], ["ो", "सी</w>"], ["ो", "च्च</w>"], ["ै", "ल</w>"], ["िया", "र</w>"], ["हो", "ते</w>"], ["हिन्द", "ू</w>"], ["हालाँ", "कि</w>"], ["हथ", "ियार</w>"], ["स्थाप", "ना</w>"], ["स्", "त्र"], ["स्", "तर</w>"], ["सि", "ं"], ["सा", "ं"], ["सह", "योग</w>"], ["सर्व", "ोच्च</w>"], ["सम", "र्थ"], ["समर्थ", "न</w>"], ["संस्कृ", "त</w>"], ["स", "ार"], ["स", "फ"], ["सफ", "ल</w>"], ["ष्", "ठ"], ["शां", "ति</w>"], ["श", "क्ति</w>"], ["वि", "वाद</w>"], ["वि", "भि"], ["वा", "दी</w>"], ["वर्त", "मान</w>"], ["वर्", "ण"], ["व", "री</w>"], ["व", "न</w>"], ["ला", ",</w>"], ["ल", "ु"], ["ल", "ीन</w>"], ["ल", "ी,</w>"], ["ल", "िया</w>"], ["र्", "ष</w>"], ["रो", "प"], ["रोप", "ीय</w>"], ["राजनी", "तिक</w>"], ["यू", "रोपीय</w>"], ["या", "स</w>"], ["य", "ों</w>"], ["मुख", "्य</w>"], ["मध", "्य</w>"], ["म", "ू"], ["म", "न</w>"], ["भा", "ग</w>"], ["बा", "र</w>"], ["बना", "ने</w>"], ["ब", "ो"], ["ब", "े</w>"], ["ब", "न"], ["प्रति", "श"], ["प्र", "यास</w>"], ["पालि", "का</w>"], ["पा", "स</w>"], ["परं", "परा"], ["पड़", "ोसी</w>"], ["न्", "न"], ["ध", "ि</w>"], ["दृ", "ष्ट"], ["द", "ू"], ["द", "िया।</w>"], ["ती", "सर"], ["त", "ो</w>"], ["त", "ु</w>"], ["त", "ु"], ["त", "मिल</w>"], ["त", "ना"], ["त", "ः</w>"], ["ड़", "ा"], ["ड", "ा"], ["जा", "ना</w>"], ["जा", "त"], ["जल", "वायु</w>"], ["जब", "कि</w>"], ["ज", "ू"], ["ज", "लो"], ["ज", "रा"], ["गांध", "ी</w>"], ["ग", "ों</w>"], ["ग", "ति</w>"], ["के", "वल</w>"], ["का", "म"], ["क", "टि"], ["क", "ं"], ["उत्", "पा"], ["उ", "स"], ["इस", "की</w>"], ["इ", "न"], ["इ", "ं"], ["आ", "न्"], ["आ", "दि</w>"], ["अर्थ", "व्यवस्था</w>"], ["अम", "री"], ["अफ", "्रीका</w>"], ["अप्र", "ैल</w>"], ["अ", "भी</w>"], ["अ", "ब</w>"], ["अ", "न्त"], ["ं", "त्र</w>"], ["ँ", "च"], ["y", "a</w>"], ["worl", "d</w>"], ["wi", "de"], ["wh", "ose</w>"], ["w", "on</w>"], ["w", "ell"], ["vi", "ol"], ["ur", "ther</w>"], ["un", "ion</w>"], ["ultan", "ate</w>"], ["u", "st</w>"], ["u", "s</w>"], ["tradition", "al</w>"], ["tion", "s</w>"], ["them", "</w>"], ["th", "ere</w>"], ["tech", "nolog"], ["t", "y"], ["t", "or"], ["t", "a"], ["sur", "v"], ["sty", "l"], ["st", "ate</w>"], ["south", "ern</w>"], ["soc", "i"], ["se", "qu"], ["s", "ed</w>"], ["ri", "ver"], ["region", "al</w>"], ["reg", "ion</w>"], ["rec", "or"], ["rea", "d</w>"], ["r", "a</w>"], ["por", "ted</w>"], ["pl", "ain"], ["pen", "in"], ["penin", "s"], ["p", "rom"], ["p", "res"], ["p", "ed</w>"], ["p", "</w>"], ["ou", "ld</w>"], ["os", "ed</w>"], ["on", "ly</w>"], ["offic", "ial</w>"], ["of", "ten</w>"], ["o", "st"], ["ni", "fic"], ["mus", "ic</w>"], ["m", "i"], ["low", "</w>"], ["long", "er</w>"], ["l", "am"], ["l", "</w>"], ["k", "ing"], ["iv", "il"], ["it", "y,</w>"], ["it", "ies</w>"], ["ist", "ic</w>"], ["ish", "ed</w>"], ["in", "ter"], ["in", "n"], ["in", "f"], ["il", "d"], ["ic", "e</w>"], ["i", "b"], ["hig", "h</w>"], ["h", "ous"], ["h", "el"], ["h", "at"], ["g", "ar"], ["for", "est"], ["for", "e</w>"], ["fol", "lowing</w>"], ["fam", "il"], ["f", "t</w>"], ["f", "oun"], ["f", "ed"], ["fed", "eral</w>"], ["ex", "ec"], ["exec", "ut"], ["er", "si"], ["er", "s.</w>"], ["er", "ation</w>"], ["end", "em"], ["en", ",</w>"], ["emerg", "ed</w>"], ["eig", "n</w>"], ["east", "ern</w>"], ["ear", "li"], ["e", "ograph"], ["e", "e"], ["e", "duc"], ["duc", "ed</w>"], ["de", "fin"], ["cre", "ated</w>"], ["comm", "erc"], ["com", "pl"], ["centur", "ies</w>"], ["c", "e"], ["c", "ap"], ["c", "an"], ["c", ".</w>"], ["bec", "ome</w>"], ["b", "od"], ["at", "ing</w>"], ["an", "ts</w>"], ["an", ",</w>"], ["all", "y,</w>"], ["all", "ed</w>"], ["al", "s,</w>"], ["ag", "es</w>"], ["ad", "v"], ["a", "ir</w>"], ["West", "ern</w>"], ["Th", "ese</w>"], ["T", "am"], ["Si", "kh"], ["S", "outh"], ["P", "ersi"], ["N", "ational</w>"], ["Muslim", "</w>"], ["M", "o"], ["Is", "lam"], ["Indi", "ans</w>"], ["Govern", "ment</w>"], ["G", "D"], ["Engl", "ish</w>"], ["Emp", "ire"], ["Del", "hi</w>"], ["D", "uring</w>"], ["Con", "stitution</w>"], ["Comp", "any</w>"], ["BCE", "</w>"], ["An", "dam"], ["Am", "ong</w>"], ["Ac", "cording</w>"], ["A", "ra"], ["7", "%</w>"], ["5", "5"], ["4", "00</w>"], ["2", "6</w>"], ["2", "6"], ["1", "6"], ["1", "5</w>"], ["್ರಾ", "ಜ್ಯ"], ["್", "ಧ"], ["ೊ", "ಡ್"], ["ೊಡ್", "ಡ</w>"], ["ೆ", "ಲ"], ["ೆ", "ರ"], ["ೆ", "ಗಳ"], ["ು", "ವ</w>"], ["ು", "ತ್ತ"], ["ಿಯ", "ಲ್ಲಿ</w>"], ["ಿ", "ವ"], ["ಾನ", ",</w>"], ["ಾಗ", "ೂ</w>"], ["ಾ", "ಲ"], ["ಹ", "ಾಗೂ</w>"], ["ಸ್", "ವಾ"], ["ಸ್ವಾ", "ತಂತ್ರ"], ["ಸು", "ಮಾರ"], ["ಸಿ", "ರಿ"], ["ಸಿರಿ", "ವ"], ["ಸಾಮ", "್ರಾಜ್ಯ"], ["ಸಾ", "ವಿ"], ["ಶತ", "ಮಾನ"], ["ವಿ", "ಭ"], ["ರ", "ೂ"], ["ರ", "ಿಂದ</w>"], ["ಯ", "ು"], ["ಮೊ", "ದ"], ["ಮು", "ಖ್ಯ"], ["ಬ", "ಂದ"], ["ನ", "ೆಯ</w>"], ["ನ", "ಗ"], ["ದ", "್ಧ"], ["ದ", "ಿಂದ</w>"], ["ದ", "ಲ್ಲ"], ["ತ", "ಿ"], ["ಚ", "ು"], ["ಗ", "ೊಂಡ"], ["ಗ", "ಿನ</w>"], ["ಗ", "ಮ"], ["ಕೋಟ", "ಿ</w>"], ["ಕ", "್ರಿ"], ["ಕ", "್ತ"], ["ಒ", "ಟ್ಟು</w>"], ["ಎ", "ಂಬ"], ["ಇ", "ದ"], ["ಆರ್ಥ", "ಿಕ</w>"], ["ಆ", "ರ"], ["ಅ", "ಂ"], ["్ల", "ను</w>"], ["్", "వ"], ["ో", ",</w>"], ["ూ", "ప"], ["ుకు", "ంట"], ["ు", "ంబ"], ["ు", ":</w>"], ["ీ", "న</w>"], ["ీ", "న"], ["ి", "స్త"], ["ి", "య"], ["ావర", "ణం</w>"], ["ాల", "తో</w>"], ["ాన", "మంత్ర"], ["ా", "న్ని</w>"], ["ా", "క"], ["హింద", "ూ</w>"], ["స్వా", "మ"], ["స్తాన్", "</w>"], ["స్", "వాత"], ["స్వాత", "ంత్ర"], ["స్", "య"], ["సి", "యా</w>"], ["సము", "ద్ర"], ["సభ", "</w>"], ["స", "ై"], ["స", "ింది.</w>"], ["స", "ార"], ["స", "ర్వ"], ["స", "ర"], ["ష", "ు</w>"], ["శ", "త"], ["శత", "ాబ్ద"], ["వె", "బ"], ["వాత", "ావరణం</w>"], ["వంట", "ి</w>"], ["వ", "ృ"], ["వ", "త్"], ["వ", "డ"], ["వ", "గా</w>"], ["లే", "ద"], ["ర్వ", "హ"], ["రో", "డ"], ["రై", "ల్"], ["రెండ", "ు</w>"], ["రి", "త"], ["ర", "క"], ["య", "ు"], ["మొ", "త్త"], ["మొత్త", "ం</w>"], ["మ", "ించ"], ["మ", "ాల"], ["మ", "ాన"], ["భాష", "ల"], ["భారతదేశ", "ానికి</w>"], ["భ", "ిన్న</w>"], ["బెంగ", "ాల"], ["బహ", "ు"], ["ప్రాచ", "ీన</w>"], ["ప్రాంత", "ాలు</w>"], ["ప్రస్తుత", "ం</w>"], ["ప్రపంచ", "</w>"], ["ప్రధ", "ానమంత్ర"], ["ప్రజ", "ా"], ["పార్ట", "ీ</w>"], ["పార్ట", "ీ"], ["పట్ట", "ణ"], ["ప", "ద్ధ"], ["ప", "ద"], ["నే", "క</w>"], ["ని", "ర్వహ"], ["నడిప", "ించ"], ["న", "గర"], ["దేశాల", "లో</w>"], ["ద", "ిన"], ["త్", "వ</w>"], ["తి", ",</w>"], ["తరువాత", "</w>"], ["త", "ుల"], ["త", "ిక</w>"], ["త", "మి"], ["డ", "ి</w>"], ["ట్ల", "ు</w>"], ["ట", "ె"], ["ట", "ీ"], ["జాబ", "ిత"], ["జరిగ", "ిన</w>"], ["చే", "య"], ["చ", "ే</w>"], ["చ", "ార"], ["చ", "రిత"], ["గ", "ంగా</w>"], ["కోర్", "ట"], ["కాంగ్రె", "స"], ["కలి", "గ"], ["క", "ల"], ["ఎక్కు", "వగా</w>"], ["ఉ", "ండ"], ["ఇండ", "ియా</w>"], ["అయ", "ిన</w>"], ["అధ", "ిక</w>"], ["అ", "భి"], ["అ", "నేక</w>"], ["అ", "తి"], ["ంలో", ",</w>"], ["ంద", "ి</w>"], ["ంత్ర", "</w>"], ["४", "."], ["२०", "१"], ["०", ","], ["्य", "म</w>"], ["्य", "ट"], ["्", "ञ"], ["्ञ", "ा"], ["ौ", "द्योग"], ["ौद्योग", "ि"], ["ी", "करण</w>"], ["हु", "ई।</w>"], ["हि", "स्"], ["हि", "ं"], ["स्व", "रूप</w>"], ["स्ता", "र</w>"], ["स्", "लि"], ["स्", "त्र</w>"], ["से", "ना"], ["सू", "न</w>"], ["सि", "ने"], ["सा", "मा"], ["सामा", "ज"], ["सामाज", "िक</w>"], ["सरकार", "ें</w>"], ["संघ", "ीय</w>"], ["संघ", "र्ष</w>"], ["सं", "गी"], ["संगी", "त</w>"], ["स", "ित</w>"], ["स", "ल्"], ["सल्", "त"], ["सल्त", "न"], ["सल्तन", "त</w>"], ["स", "त"], ["शु", "रु"], ["शुरु", "आ"], ["श", "्री"], ["श", "िय"], ["व्या", "पा"], ["व्यापा", "र</w>"], ["विभि", "न्न</w>"], ["वि", "स्तार</w>"], ["वि", "क"], ["विक", "सित</w>"], ["व", "िय"], ["व", ",</w>"], ["लो", "गों</w>"], ["ला", "वा</w>"], ["ल", ",</w>"], ["र्", "व</w>"], ["र्", "त"], ["र्त", "गा"], ["रू", "प"], ["राष्ट", "्र</w>"], ["राज", "न"], ["राजन", "ै"], ["राज", "धा"], ["राजधा", "नी</w>"], ["र", "्य</w>"], ["र", "ों</w>"], ["र", "हा"], ["र", "-"], ["य", "क</w>"], ["मु", "स्लि"], ["मिल", "िय"], ["मान", "सून</w>"], ["मा", "ना</w>"], ["मा", "ध"], ["माध", "्यम</w>"], ["महा", "द्वीप</w>"], ["भाषाए", "ँ</w>"], ["भ", "ील</w>"], ["भ", "िया"], ["बा", "हरी</w>"], ["बढ़", "कर</w>"], ["ब", "ौ"], ["ब", "ंग"], ["फ", "ि"], ["प्रारम्भ", "</w>"], ["प्रतिश", "त</w>"], ["प्र", "ौद्योगि"], ["प्र", "दा"], ["प्र", "त्य"], ["प्र", "चल"], ["पूर्", "वी</w>"], ["पु", "र्तगा"], ["पु", "रा"], ["पश्चि", "मी</w>"], ["पर्व", "त"], ["पर", "्यट"], ["पर", "े"], ["पं", "जा"], ["प", "हु"], ["न्याया", "लय</w>"], ["निर", "पे"], ["निभा", "ई</w>"], ["नद", "ियाँ</w>"], ["न", "ौ"], ["ध", "ार"], ["द्य", "ोग</w>"], ["देख", "ा</w>"], ["दृष्ट", "ि</w>"], ["दि", "ल्"], ["दा", "र</w>"], ["द", "ारी</w>"], ["थ", "े।</w>"], ["ता", "ंत्र"], ["त", "्या"], ["त", "े"], ["त", "म</w>"], ["ण", ",</w>"], ["ठ", "ा"], ["जै", "से</w>"], ["जिस", "का</w>"], ["जलो", "ढ़</w>"], ["जन", "ता</w>"], ["ज", "हाँ</w>"], ["छ", "ोड़"], ["छ", "ो"], ["ची", "फ</w>"], ["च", "ो"], ["घ", "ा"], ["गु", "प्त</w>"], ["ग", "ए</w>"], ["ग", "ई।</w>"], ["ग", "ई</w>"], ["क्र", "म"], ["को", "ई</w>"], ["केन्", "द्र"], ["कृ", "ष"], ["कि", "न्तु</w>"], ["कार", "ी</w>"], ["का", ",</w>"], ["कह", "ते</w>"], ["कर्", "म"], ["कर", "ता</w>"], ["क", "िये</w>"], ["क", "िया,</w>"], ["क", "म</w>"], ["ए", "न"], ["उस", "के</w>"], ["उप", "महाद्वीप</w>"], ["उ", "भ"], ["उ", "द्योग</w>"], ["ई", ",</w>"], ["इ", "तिहा"], ["अन्", "तर"], ["अधि", "कार</w>"], ["अंग्रे", "ज़ी</w>"], ["अ", "भिया"], ["ं", "।</w>"], ["y", "ing</w>"], ["y", "an"], ["wor", "n</w>"], ["wide", "ly</w>"], ["w", "ea"], ["w", "ar</w>"], ["v", "ill"], ["v", "ast</w>"], ["v", "ari"], ["v", "ar"], ["us", "e</w>"], ["unt", "il</w>"], ["un", "der"], ["u", "j"], ["u", "ary</w>"], ["tim", "es</w>"], ["tim", "e</w>"], ["th", "in</w>"], ["t", "ri"], ["t", "re"], ["t", "ly</w>"], ["system", ",</w>"], ["sub", "sequ"], ["su", "m"], ["sty", "le</w>"], ["str", "u"], ["speci", "es,</w>"], ["sp", "read</w>"], ["so", "on</w>"], ["sig", "nific"], ["si", "ve</w>"], ["sh", "or"], ["se", "ver"], ["se", "t</w>"], ["scri", "p"], ["s", "s"], ["s", "m"], ["s", "ion"], ["s", "ing"], ["s", "ec"], ["rul", "e</w>"], ["re", "sid"], ["re", "main"], ["re", "lat"], ["rat", "es</w>"], ["ra", "h"], ["ra", ",</w>"], ["r", "ise</w>"], ["r", "is"], ["r", "en"], ["r", "ation</w>"], ["pr", "oc"], ["plac", "e</w>"], ["penins", "ular</w>"], ["p", "ur"], ["p", "ay"], ["or", "gan"], ["op", "p"], ["oo", "k</w>"], ["ol", "ved</w>"], ["of", "f</w>"], ["oc", "i"], ["o", "ol"], ["nor", "th</w>"], ["n", "ow</w>"], ["mid", "dle</w>"], ["mid", "-"], ["mark", "et</w>"], ["mar", "y</w>"], ["ma", "k"], ["m", "em"], ["loc", "al</w>"], ["literac", "y</w>"], ["li", "ef"], ["li", "ber"], ["leg", "is"], ["lea", "ding</w>"], ["le", "ft</w>"], ["land", "s</w>"], ["l", "ast</w>"], ["l", "a"], ["king", "dom"], ["influenc", "ed</w>"], ["indu", "str"], ["in", "depend"], ["im", "al</w>"], ["il", "ity</w>"], ["ic", ".</w>"], ["i", "-"], ["hel", "d</w>"], ["h", "owever,</w>"], ["h", "igh"], ["h", "i,</w>"], ["gre", "at"], ["gr", "ou"], ["govern", "ment"], ["gl", "ob"], ["fol", "low"], ["f", "urther</w>"], ["f", "our</w>"], ["f", "ast"], ["f", "ar"], ["execut", "ive</w>"], ["est", "im"], ["est", "abl"], ["er", "s,</w>"], ["er", ",</w>"], ["ent", "ly</w>"], ["end", "ang"], ["endang", "ered</w>"], ["en", "ac"], ["empl", "oy"], ["em", "per"], ["em", "p"], ["election", ",</w>"], ["el", "it"], ["el", "</w>"], ["educ", "ation</w>"], ["earli", "est</w>"], ["e", "dic"], ["e", "di"], ["e", "as</w>"], ["e", "\"</w>"], ["disp", "ut"], ["diff", "er"], ["d", "er</w>"], ["d", "ay</w>"], ["d", "-largest</w>"], ["cour", "t"], ["countr", "y</w>"], ["cook", "ed</w>"], ["contin", "u"], ["constitut", "ion"], ["con", "stitution</w>"], ["con", "duc"], ["co", "alit"], ["c", "urr"], ["b", "or"], ["b", "le</w>"], ["at", "t"], ["at", ",</w>"], ["art", ",</w>"], ["ar", "ound</w>"], ["and", ",</w>"], ["an", "s.</w>"], ["al", "ong</w>"], ["al", "e</w>"], ["ain", "s</w>"], ["ad", "minist"], ["a", "ver"], ["a", "i"], ["a", "f"], ["a", "d</w>"], ["Th", "is</w>"], ["South", "east</w>"], ["Sanskrit", ",</w>"], ["R", "e"], ["R", "aj"], ["Pakist", "an</w>"], ["P", "r"], ["Nehru", "</w>"], ["N", "or"], ["K", "ash"], ["Jan", "uary</w>"], ["Hindi", "</w>"], ["Gand", "hi</w>"], ["G", "re"], ["Chin", "a</w>"], ["CE", ",</w>"], ["Beng", "al</w>"], ["BJ", "P</w>"], ["B", "rah"], ["B", "har"], ["B", "h"], ["Al", "though</w>"], ["Ac", "t</w>"], ["A", "f"], ["9", "%</w>"], ["5", "00</w>"], ["5", "%</w>"], ["3", "00</w>"], ["3", "%</w>"], ["2", "2</w>"], ["197", "1</w>"], ["18", "5"], ["1", "0</w>"], ["1", "00</w>"], ["0", "."], [".", "2"], [".", "."], ["′", "</w>"], ["–", "201"], ["೨", "೦"], ["೦೦", "</w>"], ["್ಯ", "ಾ"], ["ೊ", "ಳ"], ["ೈ", "ನ</w>"], ["ೆ", "ಹ"], ["ು", ",</w>"], ["ೀ", "ಕ"], ["ಿಸ", "ಿದ"], ["ಿಸ", "ಲ"], ["ಿವ", "ೆ.</w>"], ["ಿಯ", "ಿಂದ</w>"], ["ಿತ", "ಿ</w>"], ["ಿಂ", "ಧ"], ["ಿ", "ಷ"], ["ಿ", "ಪ"], ["ಾಗ", "ರ"], ["ಹ", "ಾ"], ["ಸ್ವಾತಂತ್ರ", "್ಯ</w>"], ["ಸ್", "ವ"], ["ಸುಮಾರ", "ು</w>"], ["ಸಿರಿವ", "ಂತ"], ["ಸಂ", "ಸ್ಥ"], ["ಸ", "ಿಂಧ"], ["ಸ", "ಾರ"], ["ಸ", "ಭ"], ["ಶ", "್ರ"], ["ವಾಗ", "ಿದೆ.</w>"], ["ವರ್", "ಷ"], ["ವ", "ೇ"], ["ವ", "ು.</w>"], ["ವ", "ಾ</w>"], ["ಲ್", "ಕ"], ["ರಾಜ್ಯ", "ಗಳು</w>"], ["ರ", "ತ"], ["ರ", "ಡ"], ["ಮಿಲಿಯ", "ನ್</w>"], ["ಮ", "್</w>"], ["ಭ", "ೂ"], ["ಭ", "ಾಗ"], ["ಬ್ರಿಟ", "ಿಷ"], ["ಪ್ರಪಂಚ", "ದ</w>"], ["ನಾ", "ವಣ"], ["ಧರ್", "ಮ</w>"], ["ಧರ್", "ಮ"], ["ಧ", "ಿಪ"], ["ದ", "ೊಡ್ಡ</w>"], ["ದ", "ೆಹ"], ["ದ", "ಕ್ಷ"], ["ದಕ್ಷ", "ಿ"], ["ಥ", "ವಾ</w>"], ["ಚು", "ನಾವಣ"], ["ಚ", "ೀ"], ["ಗಳ", "</w>"], ["ಗ", "ಡ"], ["ಗ", "</w>"], ["ಕ್ರಿ", "."], ["ಕೋಟಿ", ")</w>"], ["ಕ", "್ರ"], ["ಕ", "ೇ"], ["ಎಂಬ", "</w>"], ["ಎ", "ರಡ"], ["ಇಂಡ", "ಿಯ"], ["ಆರ", "ಂಭ"], ["ಆ", "ಡಳಿತ"], ["ಅ", "ಮ"], ["ಅ", "ಥವಾ</w>"], ["ಂದ", "ು</w>"], ["్‌", "</w>"], ["్రా", "జ"], ["్చ", "ి"], ["ౌ", "ర"], ["ో", "ర"], ["ొ", "ంద"], ["ై", "గా</w>"], ["ూ", "చ"], ["ుల", "కు</w>"], ["ుకో", "వడ"], ["ీ", "ర"], ["ిన", "ది.</w>"], ["ించ", "ే</w>"], ["ి", "జ"], ["ాల", "ుగ"], ["ాల", "లో</w>"], ["ాల", "కు</w>"], ["ాబ", "ా"], ["ాత", "్ర</w>"], ["స్థ", "ాన్"], ["స్", "లా"], ["స్లా", "మ"], ["సౌకర", "్య"], ["సినిమ", "ా</w>"], ["సామ", "్రాజ"], ["సాధ", "ించ"], ["సాం", "ప్రదాయ"], ["సర్వ", "ీ"], ["సభ", "్య"], ["సం", "వత్"], ["సం", "ప్రదాయ"], ["సం", "ఘ"], ["స", "మ"], ["ష", "్</w>"], ["శ్ర", "మ"], ["శాఖ", "</w>"], ["శతాబ్ద", "ం</w>"], ["శ", "్చి"], ["వ్యవస్థ", "</w>"], ["వే", "గంగా</w>"], ["వి", "శ"], ["వార", "స"], ["వా", "ద"], ["వర్", "గ"], ["వ", "ు"], ["వ", "ి.</w>"], ["వ", "హ"], ["ళ", "్లను</w>"], ["ల", "క్ష"], ["రోడ", "్డ"], ["రాష్ట్రప", "తి</w>"], ["రాష్ట్ర", "ాల</w>"], ["రా", "స్య"], ["రహదార", "ులు,</w>"], ["రక", "ాల</w>"], ["ర", "త"], ["మే", "న"], ["మూడ", "ు</w>"], ["ముఖ్య", "మైన</w>"], ["ము", "లో</w>"], ["ము", "ంబ"], ["మాత్ర", "ం</w>"], ["మధ", "్య"], ["మ", "్మ"], ["మ", "ు.</w>"], ["మ", "ల"], ["మ", "త</w>"], ["భారతదేశ", "పు</w>"], ["భారతదేశ", "ంలోని</w>"], ["భారత", "్</w>"], ["భాగ", "ం</w>"], ["బ్రి", "టి"], ["ప్రముఖ", "</w>"], ["ప్ర", "కార"], ["పు", "ట్ట"], ["పాల", "ిత</w>"], ["పాకి", "స్థాన్"], ["పా", "ద"], ["పరి", "శ్రమ"], ["పర", "ంగా</w>"], ["పత", "క"], ["ప", "ైగా</w>"], ["ప", "ాత్ర</w>"], ["ప", "శ్చి"], ["ప", "క్ష"], ["న్", "</w>"], ["ను", "మ"], ["ని", "ర్"], ["నా", ",</w>"], ["న", "్యాయ"], ["న", "ె"], ["న", "ాలు</w>"], ["న", "ాయ"], ["ద్", "వీ"], ["దక్షిణ", "ా"], ["ద", "్య"], ["ద", "ు</w>"], ["ద", "ి"], ["త్", "వా"], ["త్", "</w>"], ["తమి", "ళ"], ["త", "న</w>"], ["డ", "ు</w>"], ["డ", "ు"], ["టి", "లో</w>"], ["ట", "ుంబ"], ["ట", "ం</w>"], ["జాబిత", "ా</w>"], ["చెంద", "ిన</w>"], ["చరిత", "్ర</w>"], ["గ", "ా,</w>"], ["గ", "ా"], ["ఖ", "ండ"], ["క్ష", "రాస్య"], ["కేంద్ర", "పాలిత</w>"], ["కూడ", "ిన</w>"], ["కు", "టుంబ"], ["కార", "్య"], ["కాంగ్రెస", "ు</w>"], ["క", "ుల"], ["క", "ల్ప"], ["ఉంట", "ాయి.</w>"], ["ఆర్", "థ"], ["ఆధ", "ార"], ["ఆ", "ఫ"], ["అభి", "వృ"], ["అధికార", "ిక</w>"], ["అ", "తి</w>"], ["ంట", "ే</w>"], ["ంచ", "ి</w>"], ["४", "०</w>"], ["१९५", "०</w>"], ["१", "८"], ["१", "५</w>"], ["०", "००</w>"], ["ौ", "र</w>"], ["ॉ", "की</w>"], ["ृ", "द्ध"], ["ी", "क्ष"], ["ीक्ष", "ण</w>"], ["िया", "ं</w>"], ["ि", "म"], ["िम", "ण्ड"], ["िमण्ड", "ल</w>"], ["ि", "कार</w>"], ["हो", "ना</w>"], ["हु", "ए"], ["हिन्द", "ु"], ["हा", "ल</w>"], ["हा", "यक</w>"], ["ह", "ॉकी</w>"], ["स्वत", "ंत्र</w>"], ["स्थ", "ि"], ["स्कृ", "तिक</w>"], ["स्", "ला"], ["स्", "त</w>"], ["सो", "विय"], ["सोविय", "त</w>"], ["से", "वा"], ["से", ",</w>"], ["सू", "ची</w>"], ["सू", "च"], ["सिं", "ह</w>"], ["सि", "ंध"], ["साम", "रिक</w>"], ["सां", "स्कृतिक</w>"], ["सा", "गर</w>"], ["समा", "प्त</w>"], ["सम", "झ"], ["सभ", "्यता</w>"], ["सदस", "्यों</w>"], ["सदस", "्य</w>"], ["सद", "न</w>"], ["संबंध", "ों</w>"], ["सं", "ग"], ["स", "ों</w>"], ["स", "हायक</w>"], ["स", "म</w>"], ["स", "न्"], ["स", "क्र"], ["सक्र", "िय</w>"], ["ष्ठ", "</w>"], ["ष्", "ण</w>"], ["ष्", "क</w>"], ["श्री", "लं"], ["श्रीलं", "का</w>"], ["श्", "मी"], ["श्मी", "र</w>"], ["शुरुआ", "त</w>"], ["शु", "ष्क</w>"], ["शा", "ली</w>"], ["श", "्र"], ["श", "हर"], ["श", "क्"], ["शक्", "त"], ["विश्", "व"], ["वि", "रो"], ["वि", "भाज"], ["वि", "क</w>"], ["वा", "स्त"], ["वा", "ली</w>"], ["वं", "श</w>"], ["व", "े</w>"], ["व", "शाली</w>"], ["लोक", "प्र"], ["लोकप्र", "िय</w>"], ["लो", "ग</w>"], ["ले", "कर</w>"], ["लं", "बे</w>"], ["ल", "ौ"], ["ल", "ै"], ["ल", "ना</w>"], ["ल", "द"], ["ल", "ड़ा"], ["ल", "गा"], ["रू", "स</w>"], ["राजनै", "तिक</w>"], ["रहा", "।</w>"], ["र", "ी,</w>"], ["र", "ता</w>"], ["य", "ि"], ["य", "हाँ</w>"], ["य", "-"], ["मौ", "र्य</w>"], ["मो", "ह"], ["मैदा", "नी</w>"], ["मुस्लि", "म</w>"], ["मुख", "्य"], ["मिल", "ा</w>"], ["मंत्र", "िमण्डल</w>"], ["म", "ार्"], ["म", "त"], ["भाष", "ी</w>"], ["भारत", "ी"], ["भा", "गी"], ["भ", "र</w>"], ["बौ", "द्ध</w>"], ["बढ़", "ती</w>"], ["बंध", "ीय</w>"], ["बंग", "ा"], ["ब", "ोल"], ["ब", "ि"], ["ब", "ने</w>"], ["ब", "ने"], ["ब", "नी</w>"], ["ब", "ना</w>"], ["ब", "ज"], ["बज", "ट</w>"], ["फ", "्रां"], ["फ", "ैली</w>"], ["फ", "ा"], ["प्रौद्योगि", "की</w>"], ["प्रदा", "न</w>"], ["प्रत्य", "ेक</w>"], ["प्र", "भ"], ["प्र", "णा"], ["प्रणा", "ली</w>"], ["प्र", "का"], ["पू", "रे</w>"], ["पू", "रा</w>"], ["पु", "रु"], ["पा", "या</w>"], ["पर्यट", "न</w>"], ["परि", "णा"], ["परिणा", "म"], ["परंपरा", "गत</w>"], ["पर", "ीक्षण</w>"], ["पंजा", "ब</w>"], ["प", "ो"], ["प", "ि</w>"], ["प", "र्व</w>"], ["प", "त्"], ["न्", "त्र"], ["नि", "वे"], ["नि", "म्"], ["न", "ीय</w>"], ["न", "गर</w>"], ["धा", "र</w>"], ["ध", "िकार</w>"], ["द्र", "ो"], ["दिल्", "ली</w>"], ["दि", "रा</w>"], ["द", "ों</w>"], ["द", "ु"], ["त्र", "ि"], ["त्", "म"], ["तांत्र", "िक</w>"], ["तर", "ह</w>"], ["त", "ीन</w>"], ["ढ", "ा"], ["डा", "लर</w>"], ["ड़", "ा</w>"], ["ड", "ी</w>"], ["ड", "ी"], ["ड", "ि"], ["टे", "ली"], ["ट", "ल</w>"], ["जू", "न</w>"], ["जी", "वन</w>"], ["जिन", "में</w>"], ["जि", "न्हें</w>"], ["जन", "वरी</w>"], ["ज", "ों</w>"], ["ज", "ो"], ["ज", "मा</w>"], ["ज", "न</w>"], ["छो", "टे</w>"], ["च्", "छ"], ["च", "े"], ["च", "ा</w>"], ["च", "ल</w>"], ["घोष", "णा</w>"], ["गु", "जरा"], ["ग", "ति"], ["ख", "ा</w>"], ["क्", "ट"], ["कृष", "ि</w>"], ["कि", "सी</w>"], ["कि", "ए</w>"], ["कार्य", "पालिका</w>"], ["कार्य", "काल</w>"], ["का", "लीन</w>"], ["कर", "ते</w>"], ["कर", "ती</w>"], ["कटि", "बंधीय</w>"], ["क", "श्मीर</w>"], ["ए", "ँ</w>"], ["ऋ", "तु</w>"], ["ऊँ", "ची</w>"], ["उप", "योग</w>"], ["उन", "के</w>"], ["उन", "की</w>"], ["उत्तर", "ी</w>"], ["उत्तर", "-"], ["उ", "से</w>"], ["उ", "न्हें</w>"], ["उ", "च्च</w>"], ["इस", "में</w>"], ["इस", "का</w>"], ["इतिहा", "स</w>"], ["इंड", "िया</w>"], ["इं", "दिरा</w>"], ["इ", "स्ला"], ["इ", "से</w>"], ["आन्", "दोलन</w>"], ["आग", "मन</w>"], ["आ", "स"], ["आ", "र"], ["आ", "या"], ["आ", "य</w>"], ["आ", "प"], ["अमरी", "की</w>"], ["अप", "ना</w>"], ["अन", "ेक</w>"], ["अ", "ल्"], ["अ", "ग"], ["ं", "कि</w>"], ["ं", "क</w>"], ["°", "</w>"], ["y", "an</w>"], ["y", "'s</w>"], ["x", "im"], ["xim", "ately</w>"], ["wi", "thin</w>"], ["wh", "en</w>"], ["west", ",</w>"], ["wea", "p"], ["w", "rit"], ["w", "ild"], ["w", "est</w>"], ["w", "ent</w>"], ["vi", "di"], ["vidi", "an</w>"], ["v", "ic"], ["ut", "ical</w>"], ["urb", "an"], ["und", "ament"], ["undament", "al</w>"], ["ult", "ing</w>"], ["u", "ar"], ["u", "ally</w>"], ["u", "al</w>"], ["u", ",</w>"], ["tur", "ned</w>"], ["trans", "m"], ["tradition", "ally</w>"], ["tr", "op"], ["trop", "ical</w>"], ["tr", "o"], ["thre", "e</w>"], ["thir", "d</w>"], ["thir", "d-largest</w>"], ["th", "ought</w>"], ["th", ".</w>"], ["tern", "ational</w>"], ["term", "</w>"], ["technolog", "y</w>"], ["ta", "x"], ["t", "y</w>"], ["t", "rib"], ["t", "ook</w>"], ["t", "ive</w>"], ["t", "e"], ["stat", "es</w>"], ["st", "i"], ["st", "e"], ["spec", "ies</w>"], ["sp", "or"], ["sp", "on"], ["sp", "ea"], ["spea", "k"], ["south", "-"], ["sol", "id"], ["soci", "et"], ["sing", "le</w>"], ["signific", "ant</w>"], ["sig", "n"], ["sh", "ar"], ["secon", "d</w>"], ["sculpt", "ure</w>"], ["sch", "ool"], ["s", "ultanate</w>"], ["s", "outh</w>"], ["s", "it"], ["s", "il"], ["s", "h</w>"], ["rul", "e.</w>"], ["roc", "k</w>"], ["righ", "ts</w>"], ["ric", "a</w>"], ["res", "ulting</w>"], ["rep", "ublic</w>"], ["ren", "ew"], ["relig", "ions</w>"], ["reg", "ions</w>"], ["recor", "ded</w>"], ["rea", "ch"], ["re", "l"], ["rel", "ations</w>"], ["re", "form"], ["re", "duced</w>"], ["rat", "ic</w>"], ["ra", "vidian</w>"], ["ra", "ct"], ["ra", "c"], ["r", "oss</w>"], ["r", "ich</w>"], ["r", "ed</w>"], ["r", "ang"], ["prov", "id"], ["pro", "ximately</w>"], ["pr", "otec"], ["port", "ant</w>"], ["port", ".</w>"], ["por", "ts</w>"], ["popul", "ar</w>"], ["pol", "l"], ["pol", "ic"], ["pl", "ay"], ["ph", "arm"], ["pharm", "ac"], ["pharmac", "e"], ["pharmace", "utical</w>"], ["per", "i"], ["part", "it"], ["p", "ut"], ["p", "ublic</w>"], ["p", "ract"], ["p", "li"], ["p", "ass"], ["ou", "t"], ["ou", "l"], ["ou", "ch"], ["op", "eration</w>"], ["oo", "d</w>"], ["on", "e"], ["om", "y</w>"], ["om", "in"], ["om", "</w>"], ["ol", "de"], ["olde", "st</w>"], ["o", "th"], ["o", ".</w>"], ["n", "ot"], ["n", "ational</w>"], ["mov", "ement</w>"], ["minist", "er.</w>"], ["mem", "ber</w>"], ["ma", "in</w>"], ["m", "ult"], ["m", "er"], ["low", "er</w>"], ["li", "ance</w>"], ["legis", "lat"], ["languag", "es</w>"], ["l", "ine</w>"], ["l", "ay"], ["l", "ac"], ["kn", "own</w>"], ["kingdom", "s</w>"], ["k", "s</w>"], ["k", "ed</w>"], ["j", "ust</w>"], ["j", "ec"], ["it", "ect"], ["ism", ".</w>"], ["is", "sion"], ["is", "ing</w>"], ["ion", "s,</w>"], ["io", "diversity</w>"], ["ing", ".</w>"], ["indi", "gen"], ["in", "tro"], ["in", "es,</w>"], ["il", "e</w>"], ["if", "ied</w>"], ["i", "es,</w>"], ["i", "ally</w>"], ["i", ".</w>"], ["hous", "e</w>"], ["h", "y"], ["h", "is</w>"], ["h", "er</w>"], ["h", "en"], ["h", "ab"], ["grow", "ing</w>"], ["great", "er</w>"], ["gra", "du"], ["glob", "al</w>"], ["for", "t"], ["for", "est</w>"], ["for", "eign</w>"], ["ff", "ec"], ["feat", "ures</w>"], ["famil", "ies</w>"], ["f", "undamental</w>"], ["f", "ive</w>"], ["f", "er"], ["ext", "ern"], ["extern", "al</w>"], ["ext", "en"], ["ext", "ant</w>"], ["exp", "res"], ["ex", "chang"], ["ex", "c"], ["estim", "ated</w>"], ["establ", "ished</w>"], ["est", "-"], ["es", "s"], ["es", "er"], ["es", ":</w>"], ["erg", "y</w>"], ["er", "s"], ["er", "ing</w>"], ["er", "i"], ["eng", "th</w>"], ["enc", "y,</w>"], ["enac", "ted</w>"], ["emp", "ire</w>"], ["emoc", "ratic</w>"], ["elec", "ted</w>"], ["el", "f"], ["ed", "ul"], ["e-", "dr"], ["e-dr", "am"], ["e-dram", "as</w>"], ["e", "ir</w>"], ["e", "igh"], ["e", ":</w>"], ["divers", "e</w>"], ["direc", "tly</w>"], ["di", "st"], ["di", "sh"], ["di", "s"], ["dec", "ad"], ["decad", "es</w>"], ["de", ",</w>"], ["danc", "es</w>"], ["danc", "e-dramas</w>"], ["d", "ri"], ["d", "en"], ["d", "el"], ["d", ",</w>"], ["cult", "ure.</w>"], ["cook", "ing</w>"], ["continu", "ed</w>"], ["conduc", "ted</w>"], ["con", "solid"], ["con", "sist"], ["comp", "osed</w>"], ["comp", "an"], ["comm", "only</w>"], ["cl", "as"], ["ch", "ived</w>"], ["ch", "ar"], ["cap", "it"], ["c", "ities</w>"], ["c", "iti"], ["c", "ient</w>"], ["c", "e</w>"], ["c", "alled</w>"], ["br", "o"], ["bod", "y</w>"], ["be", "fore</w>"], ["bac", "k</w>"], ["b", "i"], ["ation", ".</w>"], ["at", "ive</w>"], ["at", "ic</w>"], ["at", "a</w>"], ["ass", "oci"], ["area", "s.</w>"], ["arch", "itect"], ["ap", "proximately</w>"], ["an", "imal</w>"], ["am", "pl"], ["all", "ey</w>"], ["ak", "sh"], ["ain", "ed</w>"], ["agricult", "ural</w>"], ["ag", "o.</w>"], ["ab", "out</w>"], ["ab", "ly</w>"], ["ab", "ility</w>"], ["a", "i,</w>"], ["a", "h"], ["V", "alley</w>"], ["Th", "eir</w>"], ["Tam", "il</w>"], ["St", "at"], ["S", "ing"], ["Punjab", "</w>"], ["Punjab", ",</w>"], ["Plat", "ea"], ["Pakistan", ".</w>"], ["Ma", "ur"], ["M", "od"], ["M", "any</w>"], ["Kash", "m"], ["Hindu", "st"], ["Hindu", "ism,</w>"], ["H", "owever,</w>"], ["Gre", "e"], ["G", "up"], ["G", "uj"], ["G", "hat"], ["F", "or"], ["E", "</w>"], ["D", "ravidian</w>"], ["D", "em"], ["D", "ec"], ["Buddh", "ist</w>"], ["Buddh", "ism</w>"], ["Beng", "al"], ["BCE", ",</w>"], ["Asi", "an</w>"], ["Asi", "a,</w>"], ["Ara", "b"], ["Ar", "chived</w>"], ["Andam", "an</w>"], ["An", "cient</w>"], ["Al", "l</w>"], ["Af", "rica</w>"], ["A", "ss"], ["A", "s</w>"], ["9", ".</w>"], ["9", "."], ["8", "0"], ["8", ".</w>"], ["8", ",</w>"], ["7", "."], ["7", ","], ["4", "0</w>"], ["3", "0</w>"], ["201", "8</w>"], ["20", "</w>"], ["2", "4"], ["2", ",</w>"], ["198", "0</w>"], ["196", "5</w>"], ["1950", ",</w>"], ["12", "00</w>"], ["1", "7</w>"], ["1", "1</w>"], ["1", "-"], ["1", "%</w>"], ["00", "00"], ["(", "P"], ["(", "3"], ["₹", "</w>"], ["–", "200"], ["೭", "</w>"], ["೨೦", "೧"], ["೦", "."], ["್ವ", "ತ್ರ"], ["್ವತ್ರ", "ಿಕ</w>"], ["್ರ", "</w>"], ["್ಯ", "ದಲ್ಲಿ</w>"], ["್ಯ", "ಂತ</w>"], ["್ದ", "ು.</w>"], ["್", "ಳ"], ["್", "ಮ"], ["್", "ಞ"], ["ೌ", "ದ್ಧ"], ["ೋ", "ಕ"], ["ೋಕ", "ಸಭ"], ["ೊಳ", "್ಳ"], ["ೊಂದ", "ಿಗೆ</w>"], ["ೆಲ", "ವ"], ["ೆಲವ", "ೆಂದರೆ</w>"], ["ೆರ", "ಿಕ"], ["ೆಯ", "ಿತು.</w>"], ["ೆ", "ದ"], ["ೃ", "ಷ"], ["ೃ", "ತ"], ["ೂ", "ರ"], ["ು", "ಶ"], ["ೀಕ", "ತ"], ["ಿಸಲ", "ಾಗ"], ["ಿಸ", "ಿ</w>"], ["ಿಯ", "ನ್ನು</w>"], ["ಿಯ", "ನ್</w>"], ["ಿದ್ದ", "ು,</w>"], ["ಿಕ", "ೆ</w>"], ["ಿ", "ದ</w>"], ["ಿ", ",</w>"], ["ಾಲ", "ರ್"], ["ಾಲರ್", "‌"], ["ಾರ", "ೆ.</w>"], ["ಾರ", "ಾ"], ["ಾರ", "ಂಭ"], ["ಾರಂಭ", "ಿಸಿದ"], ["ಾಗರ", "ೀಕತ"], ["ಾಗ", "ಿ</w>"], ["ಾಂ", "ಗ್"], ["ಾಂಗ್", "ಲಾ"], ["ಾಂಗ್ಲಾ", "ದೇಶ"], ["ಾಂಗ್ಲಾದೇಶ", "</w>"], ["ಾ", "ಪ"], ["ಾ", ",</w>"], ["ಹೋ", "ಲ"], ["ಹೋ", "ಗ"], ["ಹೆಸ", "ರು</w>"], ["ಹೆಸ", "ರಿ"], ["ಹಿಂದ", "ೂ</w>"], ["ಹಾ", "ಸ"], ["ಹ", "ಿತಿ</w>"], ["ಸ್ಥ", "ಾನ"], ["ಸ್", "ಲಿ"], ["ಸ್ಲಿ", "ಮ್</w>"], ["ಸ್", "ಟ"], ["ಸ್ಟ", "್</w>"], ["ಸಾವಿ", "ರ</w>"], ["ಸಾರ", "್ವತ್ರಿಕ</w>"], ["ಸಂಪ", "ತ್ತು</w>"], ["ಸ", "ಹ"], ["ಶ್ರ", "ೀ"], ["ಶ", "ಗಳು</w>"], ["ಶ", "</w>"], ["ವ್ಯ", "ವ"], ["ವ್ಯವ", "ಸ್ಥ"], ["ವಿಭ", "ಜ"], ["ವಿಭಜ", "ಿತ"], ["ವರ", "ೆಗೆ</w>"], ["ವ", "ರ</w>"], ["ಳ", "</w>"], ["ಲ", "ೋಕಸಭ"], ["ಲ", "ಿ</w>"], ["ಲ", "ಾರಂಭಿಸಿದ"], ["ರಾ", "ಜ"], ["ರ", "ಿ</w>"], ["ರ", "ದ</w>"], ["ಮೊದ", "ಲ</w>"], ["ಮುಖ್ಯ", "</w>"], ["ಮು", "ಸ್ಲಿಮ್</w>"], ["ಮು", "ಂಬ"], ["ಮಾ", "ಹಿತಿ</w>"], ["ಮ", "ೇ"], ["ಮ", "ೂರ"], ["ಮ", "ಿ</w>"], ["ಮ", "ಹ"], ["ಮ", "ಧ"], ["ಭಾಷ", "ಾ</w>"], ["ಭಾರತ", "ೀಯ</w>"], ["ಭಾರತ", "ವನ್ನು</w>"], ["ಭಾರತ", "ದಲ್ಲಿ</w>"], ["ಭಾರತ", "ಕ್ಕೆ</w>"], ["ಭ", "ರತ"], ["ಬ್ರಿಟಿಷ", "್</w>"], ["ಬೆ", "ಂ"], ["ಬೆಂ", "ಗಳ"], ["ಬೆಂಗಳ", "ೂ"], ["ಬ", "ೌದ್ಧ"], ["ಬ", "ಾಂಗ್ಲಾದೇಶ</w>"], ["ಬ", "ಳ"], ["ಪಟ್ಟ", "ಿಯಲ್ಲಿ</w>"], ["ಪ", "ು"], ["ಪ", "ರಿ"], ["ನಾ", "ಲ್ಕ"], ["ನ", "ಿಂದ</w>"], ["ನ", "ಾಗರೀಕತ"], ["ನ", "ಾ</w>"], ["ನ", "ಡ"], ["ದೆಹ", "ಲಿ</w>"], ["ದಕ್ಷಿ", "ಣ</w>"], ["ದ", "್ದು.</w>"], ["ತಿ", "ಹಾಸ"], ["ತ", "್"], ["ಡ", "ಾಲರ್‌"], ["ಜನಸಂಖ್ಯ", "ೆಯನ್ನು</w>"], ["ಜನಸಂಖ್ಯ", "ೆಯ</w>"], ["ಜ", "್ಞ"], ["ಜ", "ೈನ</w>"], ["ಚುನಾವಣ", "ೆ</w>"], ["ಗಳ", "ೆಂದರೆ</w>"], ["ಗಳ", "ನ್ನು</w>"], ["ಗ", "್ರಾ"], ["ಗ", "ೋ"], ["ಕ್ತ", "ಿಯ</w>"], ["ಕೇ", "ಂದ"], ["ಕ", "ೆಲವೆಂದರೆ</w>"], ["ಕ", "ರ"], ["ಎ", "ಂದು</w>"], ["ಉ", "ಪ"], ["ಉ", "ತ್ತ"], ["ಉ", "ತ್"], ["ಉ", "ಗಮ"], ["ಇಂಡಿಯ", "ಾ</w>"], ["ಅಮ", "ೆರಿಕ"], ["ಅಂ", "ಶಗಳು</w>"], ["ಅ", "ತ"], ["్‌", "సై"], ["్‌సై", "టు</w>"], ["్యాల", "ెండ"], ["్", "ఘ"], ["ే", "జ"], ["ే", ",</w>"], ["ెల", "ుగ"], ["ెల", "ు"], ["ె", "ట్</w>"], ["ూ", "రు</w>"], ["ుల", "ను</w>"], ["ున్న", "ారు.</w>"], ["ున్న", "ాయి.</w>"], ["ుత", "ో</w>"], ["ుత", "ుంది.</w>"], ["ుకు", "న్న"], ["ు", "వ"], ["ు", "న్న</w>"], ["ు", "కొ"], ["ీ", "లు</w>"], ["ీ", "ఠ"], ["ీ", "-"], ["ిత", "ి</w>"], ["ిక", "్</w>"], ["ించ", "ి,</w>"], ["ి", "స్"], ["ి", "లో</w>"], ["ి", "ప"], ["ి", "గా</w>"], ["ి", ":</w>"], ["ాలుగ", "ు</w>"], ["ాల", "ుగా</w>"], ["ాల", "ు.</w>"], ["ాల", "ా</w>"], ["ాల", "నే</w>"], ["ార", "ు"], ["ార", "ం"], ["ారం", "భ"], ["ాయ", "ి</w>"], ["ాబా", "ద్"], ["ాత", "్మ"], ["ాత", "ో</w>"], ["ా", "ళ"], ["ా", "పార"], ["ా", "దేశ"], ["ా", "డ"], ["ా", "ట"], ["ా", "ంగ"], ["హి", "మాల"], ["హ", "ై"], ["స్వామ", "్య</w>"], ["స్వత", "ంత్ర</w>"], ["స్లామ", "ాబాద్"], ["స్థాన", "ంలో</w>"], ["స్కృ", "తిక</w>"], ["స్", ",</w>"], ["సాం", "స్కృతిక</w>"], ["సర్వీ", "స"], ["సర్వీస", "ులు</w>"], ["సమా", "ఖ్య"], ["సంస్కృ", "తి</w>"], ["సంవత్", "సర"], ["సంప్రదాయ", "ాలు</w>"], ["సంగీత", "ం</w>"], ["సం", "బ"], ["సంబ", "ంధ"], ["సం", "ఖ్య"], ["సం", "క"], ["సంక", "ీర్"], ["స", "ైన"], ["స", "ూచ"], ["స", "ార్"], ["స", "హ"], ["శ్ర", "ీ"], ["శాస్త్ర", "ీయ</w>"], ["శాస్త్ర", "ం,</w>"], ["శ", "్మ"], ["శ", "ెల"], ["వ్యవస్థ", "లో</w>"], ["వ్య", "ాపార"], ["వై", "విధ"], ["వెబ", "్‌సైటు</w>"], ["వె", "ను"], ["వెను", "క"], ["వెనుక", "టి</w>"], ["వీ", "టిలో</w>"], ["వి", "భిన్న</w>"], ["వి", "ద్య"], ["వి", "త"], ["వార", "ా</w>"], ["వాణ", "ిజ"], ["వా", "హ"], ["వల", "ం</w>"], ["వర", "ి</w>"], ["వచ్చ", "ు.</w>"], ["వ", "ే</w>"], ["వ", "ి</w>"], ["ళ", "్"], ["ల్ల", "</w>"], ["ల్", "లో</w>"], ["లో", "ను</w>"], ["లేద", "ా</w>"], ["లి", "చ"], ["లం", "ప"], ["ల", "ె"], ["ల", "ు.</w>"], ["ల", "ు"], ["ర్", "‌"], ["ర్", "ష"], ["ర్", "తి"], ["ర్", "త"], ["ర్", "చ"], ["ర్", ",</w>"], ["రోడ్డ", "ు</w>"], ["రైల్", "వే</w>"], ["రై", "ళ్లను</w>"], ["రు", "ష"], ["రు", "పు"], ["రుపు", "కు"], ["రాజ్య", "ాంగ"], ["ర", "ే"], ["ర", "ు,</w>"], ["ర", "ిక"], ["య", "ాలు</w>"], ["మొదల", "ైన"], ["మొ", "ట్ట"], ["మొట్ట", "మొదటి</w>"], ["మైన", "ది.</w>"], ["ముఖ", "్య</w>"], ["మీ", "ద"], ["మహ", "ా"], ["మ", "ే</w>"], ["మ", "ంది</w>"], ["భాష", "లు</w>"], ["భారత", "ీయ"], ["భా", "విస్త"], ["భ", "ౌ"], ["భ", "రత"], ["బహు", "ళ</w>"], ["బడ", "్డ"], ["బడ", "ిన</w>"], ["బడ", "త"], ["బ", "ంగ్ల"], ["బంగ్ల", "ాదేశ"], ["బ", "ంగ"], ["ప్రభుత్వ", "ం</w>"], ["ప్రధానమంత్ర", "ి</w>"], ["ప్రతి", "పాద"], ["ప్రతిపాద", "న"], ["ప్రకార", "ం</w>"], ["ప్ర", "ారంభ"], ["ప్పటిక", "ీ,</w>"], ["పేర్", "లు</w>"], ["పేర్", "కొ"], ["పె", "న"], ["పూ", "ర్వ"], ["పు", "రుష"], ["పాల", "ించ"], ["పాల", "న</w>"], ["పా", "టు</w>"], ["పా", "క్</w>"], ["పరిశ్రమ", "లు</w>"], ["పతక", "ాలు</w>"], ["పండ", "ుగ"], ["ప", "ొంద"], ["ప", "ై</w>"], ["ప", "ీఠ"], ["ప", "ా</w>"], ["న్న", "డ"], ["న్", "మ"], ["నే", "పాల"], ["ను", "ంచి</w>"], ["నాయ", "క"], ["నా", "గర"], ["నాగర", "ిక"], ["న", "ాలుగు</w>"], ["న", "లో</w>"], ["ద్వీ", "ప"], ["ద్ధ", "ం</w>"], ["ద్", "వారా</w>"], ["దేశ", "ానికి</w>"], ["దేశ", "పు</w>"], ["దేశ", "ంగా</w>"], ["దిన", "ాలు</w>"], ["దా", "దా"], ["దక్షిణా", "సియా</w>"], ["దక్షిణ", "ాన</w>"], ["దక్షి", "ణ</w>"], ["ద", "ు"], ["ద", "ీ"], ["త్త", "రా"], ["తరువాత", "ి</w>"], ["త", "ో,</w>"], ["త", "ెలుగ"], ["త", "ె"], ["త", "క్కు"], ["ణ", "ి"], ["ణ", "ంగా</w>"], ["ట", "ై"], ["ట", "ర్"], ["జన", "గణ"], ["జ", "ాలు</w>"], ["జ", "రుపుకు"], ["జ", "న్మ"], ["జ", "ంబ"], ["జంబ", "ూ</w>"], ["చార", "ిత్ర"], ["చ", "ైన"], ["చ", "ిత్ర"], ["చ", "ి"], ["చ", "ాలా</w>"], ["గా", "ంధ"], ["గాంధ", "ీ</w>"], ["గ", "ి"], ["క్షరాస్య", "త</w>"], ["క్రీడ", "లు</w>"], ["క్", "‌"], ["కో", "ల్"], ["కొ", "న్ని</w>"], ["కేంద", "్ర</w>"], ["కే", "వలం</w>"], ["కి", "ంద"], ["కార్య", "క్రమ"], ["కా", "శ్మ"], ["కలిగ", "ి</w>"], ["కర", "ణ"], ["క", "్యాలెండ"], ["క", "్య"], ["క", "ులు</w>"], ["క", "ళ"], ["క", "న్నడ"], ["క", "థ"], ["క", "ం"], ["కం", "పెన"], ["ఒక", "టి"], ["ఏర్పడ", "్డ"], ["ఎన్న", "ిక"], ["ఉప", "ఖండ"], ["ఉన్న", "ారు.</w>"], ["ఉత్", "తర</w>"], ["ఉంట", "ుంది.</w>"], ["ఉ", "త్తరా"], ["ఇవ", "ి</w>"], ["ఇ", "స్లామాబాద్"], ["ఇ", "తర"], ["ఇ", "ంగ్ల"], ["ఆర్థ", "ిక</w>"], ["ఆఫ", "్ఘ"], ["ఆ", "హార"], ["ఆ", "క్రమ"], ["అభివృ", "ద్ధి</w>"], ["అ", "నే</w>"], ["అ", "ను"], ["అ", "ని</w>"], ["ంట", "ారు.</w>"], ["ంగ", "ా,</w>"], ["ం", "ప"], ["ం", "క"], ["९", "."], ["२०१", "४</w>"], ["२००", "४</w>"], ["२", "५"], ["२", "४"], ["१९९", "१</w>"], ["१९८", "४</w>"], ["१९", "४"], ["१", "८</w>"], ["१", "७"], ["१", ","], ["्या", "दा</w>"], ["्य", "ो"], ["ौ", "ह"], ["ौह", "ार्"], ["ो", "त्"], ["ो", "ज"], ["ै", "र-"], ["े", "र"], ["े", "क्षा</w>"], ["े", ",</w>"], ["ृद्ध", "ि</w>"], ["ृ", "द्ध</w>"], ["ू", "ह</w>"], ["ू", "ल"], ["ूल", "्य</w>"], ["ू", "बर</w>"], ["ू", "त</w>"], ["ी", "र्"], ["ी", "-"], ["ी", ")</w>"], ["िया", "ई</w>"], ["ार", "े</w>"], ["ार", "ा"], ["ार", "ख"], ["ा", "।</w>"], ["ा", "फ</w>"], ["ा", "ओं</w>"], ["हो", "ने</w>"], ["हो", "ं"], ["हों", "ने</w>"], ["हैं", ":</w>"], ["हुआ", ",</w>"], ["हिस्", "सा</w>"], ["हा", "र</w>"], ["हर", "ा</w>"], ["ह", "ू"], ["ह", "ारी</w>"], ["ह", "रू</w>"], ["ह", "रा"], ["ह", "ती</w>"], ["ह", "त"], ["हत", "्या</w>"], ["स्थि", "ति</w>"], ["स्थाप", "ित</w>"], ["स्था", "नीय</w>"], ["स्ता", "न,</w>"], ["स्ट", "ाफ</w>"], ["स्", "ट</w>"], ["सैन", "िक</w>"], ["सेवा", "ओं</w>"], ["सेना", "ओं</w>"], ["से", "वा</w>"], ["सूच", "ना</w>"], ["सी", "मा</w>"], ["सिने", "मा</w>"], ["सिंध", "ु</w>"], ["सि", "त"], ["साम्राज", "्यों</w>"], ["साथ", ",</w>"], ["सा", "हि"], ["सा", "य"], ["सा", "मान"], ["सा", "क्ष"], ["साक्ष", "रता</w>"], ["सा", "ई</w>"], ["सश", "ील</w>"], ["सश", "स्त्र</w>"], ["सरकार", "ों</w>"], ["सर", "े</w>"], ["सम्", "पूर्ण</w>"], ["समझ", "ौ"], ["सम", "ृद्ध</w>"], ["सम", "ूह</w>"], ["सद", "ीय</w>"], ["सत", "पु"], ["सतपु", "ड़ा</w>"], ["सक", "ते</w>"], ["सक", "ता</w>"], ["सं", "सदीय</w>"], ["स", "ौहार्"], ["स", "ारी</w>"], ["स", "र्"], ["स", "भी</w>"], ["स", "भा"], ["स", "दी</w>"], ["ष", "ों</w>"], ["शे", "ष"], ["शि", "क्षा</w>"], ["शा", "स्त्र"], ["शा", "ल</w>"], ["शा", "मिल</w>"], ["श", "्रे"], ["श", "ैली</w>"], ["श", "ील</w>"], ["श", "ी"], ["श", "िया</w>"], ["वै", "द"], ["वैद", "िक</w>"], ["विरो", "ध</w>"], ["विज", "्ञा"], ["विका", "सशील</w>"], ["वि", "शाल</w>"], ["वि", "द्रो"], ["वि", "त</w>"], ["वास्त", "विक</w>"], ["वा", "स</w>"], ["वर्ष", "ा</w>"], ["वर्ण", "न</w>"], ["वं", "श"], ["व", "ृद्धि</w>"], ["व", "ार"], ["व", "पूर्ण</w>"], ["लौ", "ट"], ["लोक", "तांत्रिक</w>"], ["लि", "स</w>"], ["ला", "ल</w>"], ["ला", "या।</w>"], ["ला", "ख</w>"], ["ला", "ख"], ["लद", "ी"], ["लगा", "ता"], ["लगाता", "र</w>"], ["ल", "्ट"], ["ल", "ीय</w>"], ["ल", "ित</w>"], ["ल", "िक</w>"], ["रे", "-"], ["रे-", "धीरे</w>"], ["राष्ट्र", "प"], ["राज्य", "सभा</w>"], ["राजनी", "ति</w>"], ["राज", "स्थान</w>"], ["राज", "वंश</w>"], ["राज", "भाषा</w>"], ["रह", "ी</w>"], ["रख", "ा</w>"], ["र", "त्"], ["या", ",</w>"], ["य", "ोग"], ["य", "ी</w>"], ["य", "र</w>"], ["य", "द्य"], ["यद्य", "पि</w>"], ["म्", "ब"], ["मोह", "न</w>"], ["मो", "र्"], ["मो", "दी</w>"], ["मू", "ल</w>"], ["मु", "द्र"], ["मी", "ल</w>"], ["मिलिय", "न"], ["मि", "श्र"], ["मान", "व</w>"], ["मा", "लदी"], ["मा", "म"], ["मा", "ंड"], ["महा", "सागर</w>"], ["मह", "ी"], ["मन", "मोहन</w>"], ["म", "ना"], ["म", "ं"], ["भाषाए", "ं</w>"], ["भारती", "यों</w>"], ["भागी", "दारी</w>"], ["भ", "रा</w>"], ["बै", "ठ"], ["बैठ", "क</w>"], ["बहुम", "ूल्य</w>"], ["बने", "।</w>"], ["बन", "ने</w>"], ["बद", "ल</w>"], ["बढ़", "ने</w>"], ["ब", "ी</w>"], ["ब", "हा"], ["ब", "न्"], ["ब", "डी</w>"], ["फ", "ु"], ["प्रारम्भ", "िक</w>"], ["प्रा", "ची"], ["प्राची", "न"], ["प्राचीन", "तम</w>"], ["प्रभा", "वशाली</w>"], ["प्रभा", "व</w>"], ["प्रभ", "ु"], ["प्रचल", "ित</w>"], ["प्र", "शासन</w>"], ["प्र", "देशों</w>"], ["प्र", "ति</w>"], ["प्", "ति</w>"], ["पै", "मा"], ["पुर्तगा", "ली</w>"], ["पुरु", "षों</w>"], ["पु", "लिस</w>"], ["पु", "न"], ["पार्ट", "ियों</w>"], ["पा", "ल</w>"], ["पहु", "ँच"], ["पहा", "ड़ी</w>"], ["पहा", "ड़"], ["पह", "ली</w>"], ["परे", "शन</w>"], ["परिणाम", "स्वरूप</w>"], ["पत्", "ति</w>"], ["पं", "थी</w>"], ["प", "न"], ["प", "ठा"], ["पठा", "र</w>"], ["न्याया", "ल"], ["न्या", "य"], ["न्", "होंने</w>"], ["नौ", "सेना</w>"], ["ने", "हरू</w>"], ["ने", "ट</w>"], ["निरपे", "क्ष</w>"], ["निर", "्या"], ["निय", "ु"], ["निय", "ंत्र"], ["निभा", "ई।</w>"], ["नि", "वास</w>"], ["नाग", "ा</w>"], ["ना", "म"], ["ना", "ड"], ["ना", ",</w>"], ["नद", "ियों</w>"], ["न", "्य"], ["न", "ो</w>"], ["न", "ृ"], ["न", "रे"], ["न", "म</w>"], ["धी", "रे-धीरे</w>"], ["धर्", "मों</w>"], ["धर्", "म,</w>"], ["धर्", "म"], ["ध", "िक</w>"], ["दर्", "शन</w>"], ["दक्षि", "ण"], ["द", ",</w>"], ["था", "न</w>"], ["थ", "ी,</w>"], ["त्र", ",</w>"], ["तु", "लना</w>"], ["तीसर", "ी</w>"], ["ती", "स</w>"], ["ति", "म</w>"], ["ता", ",</w>"], ["तर", "िक</w>"], ["तना", "व</w>"], ["त", "ों</w>"], ["त", "रा"], ["त", "ब</w>"], ["त", "ट"], ["ट", "ा</w>"], ["झ", "ारख"], ["जै", "न</w>"], ["जी", "त</w>"], ["जिस", "ने</w>"], ["जिस", "की</w>"], ["जा", "ने</w>"], ["ज", "ु"], ["ज", "वा"], ["ज", "ब</w>"], ["ज", "न्"], ["ज", ",</w>"], ["छोड़", "कर</w>"], ["छ", "ह</w>"], ["चु", "की</w>"], ["चा", "ई</w>"], ["च", "ौ"], ["च", "े</w>"], ["च", "ित</w>"], ["च", "र"], ["घोष", "ित</w>"], ["घा", "टी</w>"], ["गुजरा", "त</w>"], ["गति", "शील</w>"], ["ग", "्"], ["ग", "ैर-"], ["ग", "या,</w>"], ["ग", "ढ़</w>"], ["ख", "र</w>"], ["क्षेत्र", "ों</w>"], ["क्षे", "प</w>"], ["क्र", "ि"], ["क्ट", "ूबर</w>"], ["केन्द्र", "शासित</w>"], ["केन्", "द्र</w>"], ["कृ", "त</w>"], ["कार", "ों</w>"], ["काम", "का"], ["कामका", "ज</w>"], ["कर्म", "ण</w>"], ["कर", "ो"], ["कर", "वा"], ["क", "्यो"], ["क", "मांड"], ["क", "प</w>"], ["क", "-"], ["ऑ", "फ</w>"], ["ऑ", "परेशन</w>"], ["एश", "न</w>"], ["ऊँ", "चाई</w>"], ["ऊ", "पर</w>"], ["उन", "का</w>"], ["उत्पा", "द</w>"], ["उ", "ष्ण</w>"], ["इंड", "ो"], ["आस", "पास</w>"], ["आग", "े</w>"], ["आं", "दोलन</w>"], ["आं", "तरिक</w>"], ["आ", "धार</w>"], ["आ", "ते</w>"], ["आ", "ज</w>"], ["आ", "कर्मण</w>"], ["आ", "ई</w>"], ["अव", "शेष</w>"], ["अव", "धि</w>"], ["अमेरि", "का</w>"], ["अभिया", "न</w>"], ["अन्त", "र्"], ["अन्त", "तः</w>"], ["अन्", "त</w>"], ["अ", "हिं"], ["अ", "लावा</w>"], ["अ", "र्"], ["अ", "नि"], ["अ", "ति</w>"], ["अ", "च्छ"], ["अ", "क्टूबर</w>"], ["ं", "जन</w>"], ["ं", "ग</w>"], ["ँ", "च</w>"], ["z", "on"], ["z", "</w>"], ["year", ".</w>"], ["yan", "mar"], ["y", "a,</w>"], ["writ", "ten</w>"], ["world", ".</w>"], ["work", "s</w>"], ["wor", "k</w>"], ["wi", "de</w>"], ["weap", "on"], ["we", "al"], ["war", "s</w>"], ["w", "ould</w>"], ["w", "in"], ["w", "ay</w>"], ["vill", "age</w>"], ["vic", "tor"], ["ver", "y</w>"], ["ven", "u"], ["venu", "es</w>"], ["var", "n"], ["v", "is"], ["v", "ent"], ["v", "ely</w>"], ["v", "eg"], ["veg", "et"], ["v", "all"], ["us", "h</w>"], ["us", "c"], ["usc", "ri"], ["uscri", "p"], ["ur", "id"], ["urid", "ar"], ["ur", "ed</w>"], ["up", "per</w>"], ["unt", "ouch"], ["ul", "ar,</w>"], ["ub", "s</w>"], ["uar", "d</w>"], ["u", "ent</w>"], ["u", "de"], ["u", "ch</w>"], ["trib", "al</w>"], ["transm", "it"], ["transmit", "ted</w>"], ["tra", "de</w>"], ["tr", "y</w>"], ["tion", "s,</w>"], ["tion", ".</w>"], ["tim", "e,</w>"], ["thre", "at"], ["ther", "e"], ["them", ".</w>"], ["th", "ose</w>"], ["th", "ese</w>"], ["th", "-largest</w>"], ["territor", "ies</w>"], ["t", "y.</w>"], ["t", "y,</w>"], ["t", "own"], ["t", "ot"], ["t", "om"], ["t", "od"], ["tod", "ay</w>"], ["t", "iv"], ["t", "ing</w>"], ["t", "ext"], ["t", "empl"], ["t", "bo"], ["t", "al"], ["t", "ak"], ["t", ".</w>"], ["t", "-"], ["system", ".</w>"], ["sup", "ported</w>"], ["sup", "pli"], ["sup", "pl"], ["sum", "m"], ["summ", "er</w>"], ["subsequ", "ent</w>"], ["subcontin", "ent,</w>"], ["styl", "es</w>"], ["stru", "ct"], ["str", "ength</w>"], ["stit", "uent</w>"], ["stat", "u"], ["st", "ea"], ["st", "and"], ["sp", "ite</w>"], ["sp", "ic"], ["sig", "ned</w>"], ["sid", "ent,</w>"], ["sid", "e</w>"], ["si", "x"], ["si", "vely</w>"], ["si", "der"], ["sh", "ow</w>"], ["sh", "ok"], ["shok", "a</w>"], ["sh", "are</w>"], ["sh", "al"], ["sett", "l"], ["se", "par"], ["scri", "min"], ["sch", "edul"], ["schedul", "ed</w>"], ["s", "over"], ["sover", "eig"], ["sovereig", "n"], ["s", "omet"], ["somet", "im"], ["sometim", "es</w>"], ["s", "li"], ["s", "ing</w>"], ["s", "elf"], ["s", "ect"], ["sect", "or</w>"], ["s", "av"], ["s", "ar"], ["rom", "ise</w>"], ["ric", "k"], ["rick", "et</w>"], ["ri", "g"], ["ri", "</w>"], ["res", "er"], ["rep", "res"], ["remain", "ing</w>"], ["relat", "ed</w>"], ["region", "s.</w>"], ["reg", "ul"], ["rec", "ent</w>"], ["reach", "ed</w>"], ["rea", "th"], ["re", "venues</w>"], ["re", "spon"], ["re", "s</w>"], ["re", "m"], ["re", "fer"], ["re", "co"], ["reco", "g"], ["recog", "n"], ["re", "at"], ["re", "ad"], ["ra", "ther</w>"], ["ra", "p"], ["ra", "il"], ["r", "o"], ["provid", "ed</w>"], ["protec", "ted</w>"], ["pri", "mary</w>"], ["pre", "v"], ["pre", "sident,</w>"], ["pre", "domin"], ["pract", "ic"], ["pr", "op"], ["pr", "inc"], ["por", "t</w>"], ["popul", "ous</w>"], ["poll", "ut"], ["per", "ial</w>"], ["peop", "l"], ["parliament", ".</w>"], ["par", "ts</w>"], ["paint", "ing,</w>"], ["p", "over"], ["p", "oin"], ["p", "ea"], ["p", "at"], ["p", "ast"], ["oy", "al"], ["our", "c"], ["ost", "-"], ["os", "it"], ["os", "en</w>"], ["origin", "ally</w>"], ["organ", "isation</w>"], ["or", "al</w>"], ["op", "</w>"], ["ood", "s</w>"], ["one", "si"], ["on", "ial</w>"], ["on", ",</w>"], ["omet", "res</w>"], ["om", "ing</w>"], ["ol", "ving</w>"], ["ol", "it"], ["ograph", "ics</w>"], ["offic", "e</w>"], ["o-", "d"], ["o-d", "ar"], ["o-dar", "o,</w>"], ["o", "tion"], ["o", "ther"], ["o", "ted</w>"], ["o", "os"], ["o", "k</w>"], ["o", "et"], ["o", "ast"], ["num", "er"], ["num", "ber"], ["nat", "al</w>"], ["n", "omin"], ["n", "ation</w>"], ["n", "ation"], ["nation", "al"], ["n", "ame</w>"], ["mov", "ement"], ["minist", "ers.</w>"], ["mi", ")</w>"], ["mer", "ch"], ["ment", ".</w>"], ["medi", "ately</w>"], ["mathemat", "ics</w>"], ["mathemat", "ical</w>"], ["marri", "ages</w>"], ["mar", "g"], ["marg", "in"], ["man", "uscrip"], ["mak", "es</w>"], ["main", "t"], ["m", "uch</w>"], ["m", "ig"], ["m", "en</w>"], ["m", "and"], ["m", "amm"], ["m", "al"], ["m", "</w>"], ["lim", "ate</w>"], ["lif", "e,</w>"], ["liber", "al"], ["li", "k"], ["li", "ed</w>"], ["lea", "der"], ["leader", ",</w>"], ["le", "v"], ["larg", "est"], ["languag", "e,</w>"], ["languag", "e\"</w>"], ["la", "de"], ["l", "oss</w>"], ["l", "oos"], ["l", "ess</w>"], ["l", "aw"], ["law", "s</w>"], ["l", "ate</w>"], ["l", "ast"], ["l", "ab"], ["k", "il"], ["kil", "ometres</w>"], ["k", "en"], ["k", "am"], ["kam", "ee"], ["j", "o-daro,</w>"], ["iv", "il</w>"], ["it", "y.</w>"], ["it", "t"], ["it", "ated</w>"], ["is", "ol"], ["is", ".</w>"], ["ing", "ly</w>"], ["influ", "ence</w>"], ["industr", "y</w>"], ["indigen", "ous</w>"], ["independ", "ence</w>"], ["increas", "ingly</w>"], ["in", "iti"], ["in", "equ"], ["inequ", "alit"], ["in", "e.</w>"], ["in", "e,</w>"], ["in", "dh"], ["in", ".</w>"], ["in", ",</w>"], ["im", "prov"], ["im", "portant</w>"], ["im", "perial</w>"], ["ill", "</w>"], ["il", "d</w>"], ["id", "dle</w>"], ["ici", "ans</w>"], ["ic", "s.</w>"], ["ic", "ob"], ["ic", "l"], ["ic", "al,</w>"], ["i", "ther</w>"], ["i", "p"], ["i", "k"], ["i", "i"], ["i", "h"], ["i", "de"], ["her", "edi"], ["hen", "jo-daro,</w>"], ["hea", "d</w>"], ["hab", "it"], ["ha", "ving</w>"], ["ha", ",</w>"], ["grou", "p"], ["gre", "at</w>"], ["gradu", "ally</w>"], ["government", ",</w>"], ["govern", "ments</w>"], ["ga", "ve</w>"], ["g", "uard</w>"], ["g", "end"], ["g", "enc"], ["g", "e"], ["g", "as</w>"], ["g", "</w>"], ["form", "s</w>"], ["form", "al</w>"], ["fig", "ures</w>"], ["fac", "t"], ["f", "ound</w>"], ["f", "i"], ["f", "em"], ["f", "ar</w>"], ["ext", "inc"], ["exp", "ans"], ["exp", "and"], ["exchang", "e</w>"], ["ex", "port"], ["ex", "ampl"], ["ex", "</w>"], ["ever", "y"], ["ev", "al</w>"], ["et", "y</w>"], ["et", "s</w>"], ["et", "ic</w>"], ["es", ";</w>"], ["er", "t</w>"], ["er", "a</w>"], ["ep", "ublic</w>"], ["ep", "</w>"], ["end", "ing</w>"], ["en", "ergy</w>"], ["employ", "ed</w>"], ["emoc", "rac"], ["em", "b"], ["emb", "ly</w>"], ["ell", "ion</w>"], ["election", "s</w>"], ["ed", "ly</w>"], ["econom", "y.</w>"], ["east", ".</w>"], ["ear", "ed</w>"], ["ear", "-"], ["e", "as"], ["e", "al</w>"], ["e", "'s</w>"], ["du", "e</w>"], ["dra", "in</w>"], ["dist", "inc"], ["disput", "es</w>"], ["differ", "ent</w>"], ["di", "tion</w>"], ["di", "scrimin"], ["di", "ment</w>"], ["di", "</w>"], ["develop", "ment</w>"], ["develop", "ed</w>"], ["der", "s</w>"], ["defin", "it"], ["dec", "lar"], ["dec", "ade</w>"], ["d", "s,</w>"], ["d", ".</w>"], ["cult", "ures</w>"], ["cult", "ural</w>"], ["cru", "st"], ["cru", "c"], ["cruc", "ial</w>"], ["cour", "t</w>"], ["contribut", "ions</w>"], ["cont", "ains</w>"], ["cont", "ain</w>"], ["constitution", "al</w>"], ["consist", "s</w>"], ["con", "sider"], ["comp", "romise</w>"], ["commerc", "ial</w>"], ["comm", "on</w>"], ["col", "onial</w>"], ["coalit", "ion</w>"], ["co", "-"], ["class", "ical,</w>"], ["char", "ac"], ["charac", "ter"], ["ch", "uridar"], ["ch", "osen</w>"], ["ch", "anges</w>"], ["centur", "y.</w>"], ["centur", "ies,</w>"], ["cent", "r"], ["censu", "s</w>"], ["censu", "s,</w>"], ["capit", "a</w>"], ["ca", "us"], ["c", "rit"], ["c", "r"], ["c", "ould</w>"], ["c", "os"], ["c", "ivil"], ["c", "ep"], ["c", "an</w>"], ["c", "ame</w>"], ["c", "al"], ["bir", "th"], ["bel", "ow</w>"], ["bel", "ong</w>"], ["bec", "oming</w>"], ["be", "lief"], ["be", "ing</w>"], ["bac", "k"], ["b", "ri"], ["b", "reath"], ["b", "ers</w>"], ["b", "ellion</w>"], ["b", "ar"], ["at", "iv"], ["at", "i,</w>"], ["ass", "ert</w>"], ["arm", "ies</w>"], ["ar", "nat"], ["ar", "ly</w>"], ["ar", "ies</w>"], ["ar", "eas</w>"], ["ar", "ds</w>"], ["ar", "a</w>"], ["anguag", "es</w>"], ["ang", "lade"], ["anc", "ed</w>"], ["an", "ted</w>"], ["an", "other</w>"], ["an", "imal"], ["an", "i</w>"], ["an", "ch"], ["an", "ag"], ["an", "-"], ["am", "p"], ["am", ",</w>"], ["all", "y.</w>"], ["all", "av"], ["al", "es</w>"], ["agricult", "ure</w>"], ["ag", "o,</w>"], ["ad", "op"], ["ad", "ded</w>"], ["ac", "tbo"], ["ac", "ross</w>"], ["ac", "c"], ["a", "il"], ["a", "ic</w>"], ["a", "ch"], ["W", "h"], ["W", "est</w>"], ["W", "H"], ["WH", "O"], ["V", "i"], ["V", "a"], ["Un", "ion</w>"], ["U", "P"], ["Th", "ar</w>"], ["T", "reat"], ["St", "ates</w>"], ["Sing", "h</w>"], ["Si", "k"], ["Sanskrit", "</w>"], ["S", "ri</w>"], ["S", "ha"], ["S", "e"], ["S", "B"], ["SB", "N"], ["SBN", "</w>"], ["R", "epublic</w>"], ["Persi", "an</w>"], ["P", "allav"], ["P", ",</w>"], ["Nor", "th</w>"], ["N", "uclear</w>"], ["N", "on-"], ["N", "icob"], ["N", "D"], ["Mod", "ern</w>"], ["Mo", "henjo-daro,</w>"], ["Maur", "ya</w>"], ["M", "yanmar"], ["M", "iddle</w>"], ["M", "ar"], ["M", "al"], ["L", "ank"], ["L", "anguages</w>"], ["K", "al"], ["Jan", "ata</w>"], ["Islam", "ic</w>"], ["Indo-", "Ar"], ["Indi", "ra</w>"], ["Ind", "onesi"], ["I", "SBN</w>"], ["I", ",</w>"], ["Hindu", "ism</w>"], ["Gup", "ta</w>"], ["Guj", "ar"], ["Gree", "k</w>"], ["GD", "P</w>"], ["G", "eograph"], ["F", "ron"], ["F", "or</w>"], ["F", "actbo"], ["Eur", "as"], ["Empire", ".</w>"], ["E", "x"], ["E", "m"], ["E", "con"], ["E", "ast"], ["E", "arly</w>"], ["Dem", "ographics</w>"], ["Dec", "can</w>"], ["D", "ev"], ["D", "eser"], ["D", "e"], ["D", "ance</w>"], ["Con", "stituent</w>"], ["Chin", "a,</w>"], ["C", "oun"], ["C", "l"], ["C", "ivil"], ["Brit", "ish"], ["Bhar", "at"], ["BCE", ".</w>"], ["B", "ay</w>"], ["B", "anglade"], ["Ass", "embly</w>"], ["Asi", "a.</w>"], ["Arab", "ian</w>"], ["A", "u"], ["A", "shoka</w>"], ["A", "k"], ["9", "4</w>"], ["9", "3,"], ["8", "."], ["8", "%</w>"], ["7", "0"], ["7", ".</w>"], ["6.", "6</w>"], ["55", ",000</w>"], ["5", ".</w>"], ["5", "."], ["40", "%</w>"], ["4", "6"], ["4", "3"], ["4", "2</w>"], ["4", ",</w>"], ["3", "th</w>"], ["3", "6"], ["3", ".</w>"], ["201", "6"], ["201", "3</w>"], ["201", "1,</w>"], ["201", "0"], ["200", "3</w>"], ["200", "1</w>"], ["20", "20"], ["20", "19"], ["2", "8</w>"], ["2", "6%</w>"], ["2", "1."], ["2", "%</w>"], ["199", "9</w>"], ["199", "1</w>"], ["199", "1,</w>"], ["199", "1"], ["199", "0</w>"], ["196", "7</w>"], ["196", "2</w>"], ["196", "2"], ["196", "0</w>"], ["1950", "s,</w>"], ["195", "1</w>"], ["195", "1,</w>"], ["19", "th</w>"], ["10", ","], ["1.", "3</w>"], ["1,", "93,"], ["1,", "000</w>"], ["1,", "0"], ["1", "st</w>"], ["1", "6."], ["1", "3th</w>"], ["1", "3</w>"], ["1", "2</w>"], ["00", "0"], ["0", "4"], [".", "పూ"], ["-", "0"], ["+", "</w>"], ["(", "వెనుకటి</w>"], ["(", "०,"], ["(", "c.</w>"], ["(", "7"], ["(", "2"], ["%", ")</w>"], ["\"", ".</w>"], ["\"", ",</w>"], ["”", "</w>"], ["–", "2"], ["‍", "व</w>"], ["‌", "క"], ["‌క", "ాత"], ["‌కాత", "ా</w>"], ["Ἰ", "ν"], ["Ἰν", "δ"], ["೮", "</w>"], ["೫", "</w>"], ["೨೦೧", "೪</w>"], ["೨", "೦೦"], ["೨೦೦", "೯"], ["೨", "</w>"], ["೧೯", "೭"], ["೧", "೩"], ["೦೦", "೦</w>"], ["್ರಾ", "ಡಳಿತ"], ["್ರಾಡಳಿತ", "</w>"], ["್ಯ", "ೂ</w>"], ["್ಯ", "ಧಿಪ"], ["್ತ", "್"], ["್ತ್", "‌</w>"], ["್", "ಬ"], ["್", "ಕ"], ["ೋ", "ಗ"], ["ೊಳ್ಳ", "ುವ</w>"], ["ೈ", "</w>"], ["ೇ", "</w>"], ["ೆಲ", "್ತ್‌</w>"], ["ೆಯ", "ಲ್ಲಿ</w>"], ["ೆಗಳ", "ನ್ನು</w>"], ["ೆ", "ಲಿ"], ["ೆಲಿ", "ಗ್ರಾ"], ["ೆಲಿಗ್ರಾ", "ಂ"], ["ೆ", "ನ"], ["ೆ", "ದ</w>"], ["ೆ", ":</w>"], ["ೃ", "ಷ್ಟ"], ["ೂ", ",</w>"], ["ುತ್ತ", "ಿರುವ</w>"], ["ುತ್ತ", "ಾ</w>"], ["ು", "ರು"], ["ುರು", "ಹ"], ["ುರುಹ", "ು"], ["ೀ", "ಷ"], ["ಿಸ", "ಿವೆ.</w>"], ["ಿಸ", "ಿತು.</w>"], ["ಿದ್ದ", "ಾರೆ.</w>"], ["ಿದ", "ೆ:</w>"], ["ಿತ", "್ರ"], ["ಿಕ", "ೃತ"], ["ಿಂ", "ಗಡ"], ["ಿ", "ತ್ತ"], ["ಿತ್ತ", "ು.</w>"], ["ಿ", "ಜ್ಯ"], ["ಿಜ್ಯ", "</w>"], ["ಿ", "ಗಳಲ್ಲಿ</w>"], ["ಿ", "ಂತ</w>"], ["ಾರಾ", "ಜ"], ["ಾರ", "್"], ["ಾರ", "ಿಕ"], ["ಾಪ", "ಾರ"], ["ಾಗ", "ಿದೆ.</w>"], ["ಾಂ", "ಶ</w>"], ["ಾ", "ಚೀ"], ["ಾಚೀ", "ನ</w>"], ["ಹೋಲ", "ಿಕೆ</w>"], ["ಹೋ", "ದ</w>"], ["ಹೆಸರಿ", "ನಿಂದ</w>"], ["ಹಿಂದ", "ಿನ</w>"], ["ಹ", "್ಮ"], ["ಹ", "ೀ"], ["ಹ", "ರ"], ["ಹ", "ಂಚ"], ["ಸ್ವ", "ತಂತ್ರ"], ["ಸ್ಥಾನ", "ವನ್ನು</w>"], ["ಸ್ಥ", "ಾನ</w>"], ["ಸ್", "</w>"], ["ಸು", "ಲ"], ["ಸುಲ", "್ತ"], ["ಸಿರಿವಂತ", "ರು</w>"], ["ಸಿರಿವಂತ", "ರ</w>"], ["ಸಿಂಧ", "ೂ</w>"], ["ಸಿ", "ಖ"], ["ಸಿಖ", "್</w>"], ["ಸಾವಿ", "ರ"], ["ಸಾಮ್ರಾಜ್ಯ", "</w>"], ["ಸಾ", "ಲಿ"], ["ಸಾಲಿ", "ನ"], ["ಸಾಲಿನ", "ಲ್ಲಿ</w>"], ["ಸಹ", "ಸ"], ["ಸಂಪ", "ರ್"], ["ಸಂಖ್ಯ", "ೆಯಲ್ಲಿ</w>"], ["ಸ", "ರಿ</w>"], ["ಷ", "್ಯಾ"], ["ಶ್ರೀ", "ಮ"], ["ಶ್ರೀಮ", "ಂತ</w>"], ["ಶತಮಾನ", "ದಿಂದ</w>"], ["ಶತಮಾನ", "ದಲ್ಲಿ</w>"], ["ಶತ", "</w>"], ["ಶ", "್ವ"], ["ಶ", "ಕ್ತಿಯ</w>"], ["ವ್ಯವಸ್ಥ", "ೆಯನ್ನು</w>"], ["ವ್ಯ", "ಾಪಾರ"], ["ವಿಭಜಿತ", "</w>"], ["ವಿ", "ಶ್ವ"], ["ವಿ", "ರು"], ["ವಿ", "ಧ"], ["ವಾ", "ಣ"], ["ವಾಣ", "ಿಜ್ಯ</w>"], ["ವರ್ಷ", "ಕ್ಕೆ</w>"], ["ವರ್", "ಲ್"], ["ವರ್ಲ್", "ಡ್"], ["ವರ್ಲ್ಡ್", "‌</w>"], ["ವರ", "ು</w>"], ["ವರ", "ನ್ನು</w>"], ["ವರ", "ದ"], ["ವರದ", "ಿಯಲ್ಲಿ</w>"], ["ವಣ", "ಿಗೆ</w>"], ["ವ", "ೆಲ್ತ್‌</w>"], ["ವ", "ು</w>"], ["ವ", "ಿಂಗಡ"], ["ಳ", "ಿ</w>"], ["ಲ್ಲ", "ಿ"], ["ಲೋಕಸಭ", "ೆ</w>"], ["ಲಾರಂಭಿಸಿದ", "ರ"], ["ಲಾರಂಭಿಸಿದರ", "ು.</w>"], ["ಲಾ", "ದ</w>"], ["ಲ", "ಿಸ"], ["ಲ", "ವಾಗಿ</w>"], ["ರೂ", "ಪಾ"], ["ರೂ", ".2"], ["ರು", ",</w>"], ["ರಾಷ್ಟ್ರ", "ೀಯ</w>"], ["ರಾಜ್ಯ", "ದ</w>"], ["ರಾಜ", "ಕ"], ["ರಾಜಕ", "ೀಯ</w>"], ["ರ", "ೆ"], ["ಯು", "ಗ"], ["ಯ", "ೋಗ"], ["ಮೊದ", "ಲಾದ</w>"], ["ಮೂರ", "ನೇ</w>"], ["ಮುಖ್ಯ", "ವಾ"], ["ಮು", "ಖ"], ["ಮುಖ", "</w>"], ["ಮು", "ಂದ"], ["ಮುಂದ", "ಕ್ಕೆ</w>"], ["ಮಹ", "ಾರಾಜ"], ["ಮ", "ಯ"], ["ಮ", "ನ"], ["ಮ", "ದಲ್ಲಿ</w>"], ["ಭೂ", "ಮಿ</w>"], ["ಭಾಷ", "ೆಗಳನ್ನು</w>"], ["ಭಾರತ", "ದಲ್ಲ"], ["ಭಾರತದಲ್ಲ", "ಿರುವ</w>"], ["ಭಾರತ", ",</w>"], ["ಭಾಗ", "ಗಳು</w>"], ["ಭರತ", "</w>"], ["ಬ್ರಿಟ", "ೀಷ"], ["ಬೌದ್ಧ", "</w>"], ["ಬೆಳ", "ೆದ</w>"], ["ಬೆಳ", "ವಣಿಗೆ</w>"], ["ಬಳ", "ಗ"], ["ಬಂದ", "ಿದೆ.</w>"], ["ಬಂದ", "ದ್ದು.</w>"], ["ಬ", "್ಬ"], ["ಬ", "ಲ</w>"], ["ಪ್ರಪಂಚ", "ದಲ್ಲಿ</w>"], ["ಪ್ರದೇಶ", "ಗಳು</w>"], ["ಪ್ರದೇಶ", "</w>"], ["ಪ್ರ", "ಾಚೀನ</w>"], ["ಪ್ರ", "ಮುಖ</w>"], ["ಪು", "ತ್ರ"], ["ಪಾ", "ದ"], ["ಪಾ", "ತ್ರ"], ["ಪರಿ", "ಸ್ಥ"], ["ಪಡ", "ೆಯಿತು.</w>"], ["ಪಡ", "ೆದ"], ["ಪ", "ೂ</w>"], ["ಪ", "ರ್"], ["ಪ", "</w>"], ["ನ್", ".</w>"], ["ನೇ", "ರ್"], ["ನಾಲ್ಕ", "ು</w>"], ["ನಾಗರೀಕತ", "ೆಯ</w>"], ["ನಡ", "ೆ"], ["ನಗ", "ರ</w>"], ["ನಗ", "ರ"], ["ನಂತ", "ರದ</w>"], ["ನ", "್ಯೂ</w>"], ["ನ", "ೆ</w>"], ["ನ", "ಿ"], ["ನ", "ದ"], ["ಧ", "ಿಕೃತ"], ["ದೇಶ", "ದ</w>"], ["ದೇಶ", "ಗಳ"], ["ದ", "ೃಷ್ಟ"], ["ತ್ತ", "</w>"], ["ತಿಹಾಸ", "</w>"], ["ತಿ", "ಗಳು</w>"], ["ತಂತ್ರ", "ಜ್ಞ"], ["ತ", "್ವ"], ["ತ", "ಿಯ</w>"], ["ತ", "ರ</w>"], ["ಟ", "ೆಲಿಗ್ರಾಂ"], ["ಟ", "ದ</w>"], ["ಜನಸಂಖ್ಯ", "ಾ</w>"], ["ಜನ", "ಗಣ"], ["ಜ", "ಾ"], ["ಗೊಂಡ", "ವು.</w>"], ["ಗ", "ಿಂತ</w>"], ["ಕ್ರಿ.", "ಪೂ</w>"], ["ಕ್ರ", "ಮ"], ["ಕೋಟ", "್ಯಧಿಪ"], ["ಕೇಂದ", "್ರಾಡಳಿತ</w>"], ["ಕರ", "ೆಯ"], ["ಕ", "ೊಳ್ಳುವ</w>"], ["ಕ", "ೆ"], ["ಕ", "ೃಷ"], ["ಕ", "ುರುಹು"], ["ಕ", "ಾಲ"], ["ಕ", "ಂ"], ["ಕಂ", "ಪ"], ["ಉಪ", "ಯೋಗ"], ["ಉತ್ತ", "ರ</w>"], ["ಉತ್", "ಪಾದ"], ["ಈ", "ಸ್ಟ್</w>"], ["ಈ", "ಗಿನ</w>"], ["ಇದ", "ೆ.</w>"], ["ಇ", "ತಿಹಾಸ</w>"], ["ಇ", "ತರ</w>"], ["ಆರಂಭ", "ವಾಗಿ</w>"], ["ಆಡಳಿತ", "ಕ್ಕೆ</w>"], ["ಆ", "ಗ"], ["ಅಮೆರಿಕ", "ನ್</w>"], ["ಅತ", "್ಯಂತ</w>"], ["ಅಂ", "ಕ"], ["ಅ", "ಧಿಕೃತ"], ["ಅ", "ಂತ"], ["ಂ", "ಗ"], ["్‌", "లో</w>"], ["్ల", "ో"], ["్ల", "మె"], ["్లమె", "ంట"], ["్ల", "</w>"], ["్ర", "ో"], ["్ర", "ిక</w>"], ["్ర", "ాన్"], ["్యాల", "లో</w>"], ["్యాయ", "ాలు</w>"], ["్య", "ం,</w>"], ["్", "స్</w>"], ["్", "త"], ["ౌర", "్య</w>"], ["ౌ", "ద్ధ"], ["ౌ", "క"], ["ోర", "ల్</w>"], ["ో", "య</w>"], ["ో", "ధ"], ["ో", "ంది.</w>"], ["ో", "-"], ["ై", "ల"], ["ై", "నా,</w>"], ["ై", "న</w>"], ["ేజ", "ి</w>"], ["ే", "య"], ["ే", "ది</w>"], ["ే", ".</w>"], ["ెలు", "చ"], ["ెలుచ", "ుకోవడ"], ["ెలుచుకోవడ", "ం</w>"], ["ెల", "కొ"], ["ె", "స్</w>"], ["ృ", "త"], ["ూడ", "ండ"], ["ూ", "ర్"], ["ూ", "పా"], ["ూపా", "ంత"], ["ూపాంత", "ర"], ["ూ", "న"], ["ుల", "ు.</w>"], ["ున్న", "ది.</w>"], ["ుత", "ూ</w>"], ["ుత", "ున్న</w>"], ["ుత", "</w>"], ["ుగ", "ు"], ["ుగు", "బా"], ["ుగుబా", "టు</w>"], ["ుకో", "బడత"], ["ుకోబడత", "ారు.</w>"], ["ుకు", "ని</w>"], ["ు", "ర"], ["ు", "ప"], ["ు", "త్</w>"], ["ు", "ట"], ["ు", ";</w>"], ["ీ-", "లా"], ["ీ-లా", "హ"], ["ీ-లాహ", "ో"], ["ీ", "షు</w>"], ["ీ", "లో</w>"], ["ీ", "క్ష"], ["ీ", "ం</w>"], ["ిస్త", "ారు.</w>"], ["ిన", "ీ</w>"], ["ిన", "ట్లు</w>"], ["ిక", "్‌</w>"], ["ిక", "్"], ["ిక", "లు</w>"], ["ిక", "ంగా</w>"], ["ించ", "ినట్లు</w>"], ["ి", "శ"], ["ి", "ల్</w>"], ["ి", "ర"], ["ి", "నా,</w>"], ["ి", "ంది</w>"], ["ావర", "ాలు</w>"], ["ాల", "్</w>"], ["ాల", "ు:</w>"], ["ార్", "థ"], ["ార", "ి</w>"], ["ాయ", "ుత</w>"], ["ాయ", "ు</w>"], ["ాన", "్య</w>"], ["ాన", "ులు,</w>"], ["ాన", "ు</w>"], ["ాన", "ీ</w>"], ["ాత్మ", "ా</w>"], ["ాత", "ం</w>"], ["ాట", "క</w>"], ["ా", "ధ"], ["ా", "కా"], ["ాకా", "-"], ["ాకా-", "ఢిల్ల"], ["ాకా-ఢిల్ల", "ీ-లాహో"], ["ా", "క</w>"], ["హై", "ద"], ["హైద", "రా"], ["హైదరా", "బా"], ["హిమాల", "య</w>"], ["హిందూ", "దేశం</w>"], ["హి", "ళ"], ["హార", "</w>"], ["హ", "్మ"], ["హ", "ాక"], ["స్వాతంత్ర", "్యం</w>"], ["స్వాతంత్ర", "్య</w>"], ["స్థాన", "ాలను</w>"], ["స్థాన", "ం</w>"], ["స్థ", "ితి</w>"], ["స్థ", "ావరాలు</w>"], ["స్త్ర", "ీలు</w>"], ["స్త", "ాయి.</w>"], ["స్", "వీ"], ["స్", "లి"], ["స్లి", "ం</w>"], ["స్", "ట్</w>"], ["స్", "ట"], ["స్", "కరణ"], ["సౌకర్య", "ాలు</w>"], ["సౌకర", "్యాలలో</w>"], ["సైన", "ిక</w>"], ["సూచ", "ించినట్లు</w>"], ["సు", "ప్ర"], ["సుప్ర", "ీం</w>"], ["సు", "ను</w>"], ["సినిమ", "ాలు</w>"], ["సింధ", "ూన"], ["సి", "య"], ["సియ", "ాలో</w>"], ["సి", "ద్ధి</w>"], ["సార్", "వత"], ["సార్వత", "్రిక</w>"], ["సార", "స్వత"], ["సామ", "ర్"], ["సామర్", "థ"], ["సామర్థ", "్యం</w>"], ["సాధ", "ించిన</w>"], ["సాంప్రదాయ", "ిక</w>"], ["సాం", "కే"], ["సాంకే", "తిక</w>"], ["సా", "హ"], ["సా", "మా"], ["సామా", "జ"], ["సామాజ", "ిక,</w>"], ["సహ", "స"], ["సహస", "్ర"], ["సరిహద్ద", "ుగా</w>"], ["సముద్ర", "త"], ["సముద్రత", "ీర"], ["సముద్ర", "ం,</w>"], ["సమాఖ్య", ".</w>"], ["సమా", "జ"], ["సభ్య", "ులు</w>"], ["సభ", "ను</w>"], ["సంస్కృ", "త"], ["సం", "స్కరణ"], ["సం", "ఖ"], ["సంఖ", "్య</w>"], ["స", "ిక్"], ["స", "ి</w>"], ["స", "ాల"], ["స", "మర"], ["స", "న</w>"], ["స", "</w>"], ["ష్", "ణ</w>"], ["ష్", "ణ"], ["ష", "యాలు</w>"], ["శెల", "వు"], ["శెలవు", "దినాలు</w>"], ["శా", "సన</w>"], ["శ", "ైల"], ["శ", "ీత"], ["శ", "ి"], ["శ", "ాన్య</w>"], ["శ", "క్"], ["శ", "కు"], ["శ", "క</w>"], ["వైవిధ", "్య"], ["వే", "ల</w>"], ["వే", "ద"], ["వే", ".</w>"], ["వె", "ల్ల"], ["విస్త", "ీర్"], ["విద్య", "ుత్</w>"], ["వి", "షయాలు</w>"], ["వి", "లు"], ["వి", "దేశ"], ["విదేశ", "ీ</w>"], ["వి", "జ"], ["వి", "ంచ"], ["వారస", "త్వ"], ["వార", "ి</w>"], ["వాద", "ం</w>"], ["వాణిజ", "్య</w>"], ["వల", "స</w>"], ["వల", "న</w>"], ["వర్", "ష"], ["వర్", "ణ</w>"], ["వర", "ీ</w>"], ["వచ్చ", "ిన</w>"], ["వచ్చ", "ిన"], ["వచ్చ", "ని</w>"], ["వ", "ులు,</w>"], ["వ", "ుతుంది.</w>"], ["వ", "ాయు</w>"], ["వ", "ల్ల</w>"], ["వ", "ల</w>"], ["వ", "నాలు</w>"], ["వ", "ంత"], ["ళ్", "ళ"], ["ళ", "ిక</w>"], ["ళ", "ి,</w>"], ["లో", "మీ"], ["లోమీ", "టర్"], ["లోమీటర్", "లకు</w>"], ["లో", "ని</w>"], ["లో", "క్‌"], ["లో", "క్</w>"], ["లో", ",</w>"], ["లక్ష", "ణ"], ["లం", "క"], ["ల", "ౌక"], ["ల", "ుగా</w>"], ["ల", "తో</w>"], ["ల", "తో,</w>"], ["ల", "క్"], ["లక్", "ట"], ["లక్ట", "ోరల్</w>"], ["ర్ష", "ణ"], ["ర్తి", "గా</w>"], ["ర్", "వాత"], ["ర్", "జాతీయ</w>"], ["రో", "పా</w>"], ["రైల్", "వే"], ["రెండ", "వ</w>"], ["రాష్ట్ర", "ాలు</w>"], ["రాష్ట్ర", "ాలు,</w>"], ["రాష్ట్ర", "</w>"], ["రాజ్యాంగ", "ం</w>"], ["రాజ్య", "ాలుగా</w>"], ["రాజ్య", "ాలు</w>"], ["రాజ్య", "ంగా</w>"], ["రాజక", "ీయ"], ["రాజ", "్య</w>"], ["రాజ", "ు</w>"], ["రంగ", "ంలో</w>"], ["ర", "ూపాంతర"], ["ర", "ూప"], ["ర", "ుగుబాటు</w>"], ["ర", "ణ</w>"], ["ర", "చ"], ["రచ", "య"], ["రచయ", "ిత"], ["ర", "కాల"], ["యో", "జన"], ["యో", "గ"], ["యోగ", "ిస్త"], ["యా", "ళ"], ["య", "ింది.</w>"], ["య", "ాత్ర"], ["య", "మించ"], ["మ్మ", "ూ</w>"], ["మొదల", "గు"], ["మొద", "టి"], ["మొ", "గ"], ["మై", "త"], ["మై", "</w>"], ["మేన", "ని</w>"], ["మే", ".</w>"], ["మె", "రిక"], ["ముఖ్య", "ంగా</w>"], ["ముంబ", "ై</w>"], ["ము", "స్లిం</w>"], ["ము", "డి</w>"], ["మీద", "గా</w>"], ["మి", "స్త"], ["మాన", "ం:</w>"], ["మాత్ర", "మే</w>"], ["మా", "న</w>"], ["మా", "ట్ల"], ["మాట్ల", "ాడ"], ["మహ", "ాత్మా</w>"], ["మల", "యాళ"], ["మర", "ో</w>"], ["మన", "దేశం</w>"], ["మత", "మ"], ["మంత్ర", "ి"], ["మ", "ౌర్య</w>"], ["మ", "ూ"], ["మ", "ీ</w>"], ["మ", "ిత"], ["మ", "ారు"], ["మ", "ాత"], ["మ", "హిళ"], ["మ", "తి</w>"], ["భౌ", "గో"], ["భౌగో", "ళిక</w>"], ["భూ", "భాగం</w>"], ["భూ", "ట"], ["భూట", "ాన్"], ["భాషల", "ను</w>"], ["భాష", "ా</w>"], ["భారతదేశ", "ం.</w>"], ["భారత", "్‌లో</w>"], ["భారత", "్,</w>"], ["భారత", "ం,</w>"], ["భాగ", "ాన్ని</w>"], ["భ", "వించ"], ["భ", "క్"], ["బ్రిటి", "ష్</w>"], ["బ్రిటి", "షు</w>"], ["బ్రి", "టీ"], ["బెంగాల", "ీ</w>"], ["బడ", "ింది.</w>"], ["బంగ్లాదేశ", "్‌"], ["బంగ", "ారు</w>"], ["బ", "ౌద్ధ"], ["ఫ", "ల"], ["ప్రారంభ", "ించ"], ["ప్రాంత", "ీయ</w>"], ["ప్రాంత", "ాల్లో</w>"], ["ప్రస్తుత", "ము</w>"], ["ప్రముఖ", "మైన"], ["ప్రభు", "త్వా"], ["ప్రభుత్వా", "న్ని</w>"], ["ప్రభు", "త్వ</w>"], ["ప్రపంచ", "ములో</w>"], ["ప్రపంచ", "ంలోని</w>"], ["ప్రపంచ", "ంలో</w>"], ["ప్రతిపాదన", "కు</w>"], ["ప్రతి", "పక్ష"], ["ప్రజా", "స్వామ్య</w>"], ["ప్రజా", "ద"], ["ప్రజాద", "రణ</w>"], ["ప్రజ", "లు</w>"], ["ప్రజ", "ల</w>"], ["ప్ర", "ిల్</w>"], ["ప్ర", "ాయ"], ["ప్ర", "సిద్ధి</w>"], ["ప్ర", "యోజన"], ["ప్ర", "దేశ"], ["ప్ర", "త్య"], ["ప్పటిక", "ినీ</w>"], ["ప్", "పు"], ["ప్పు", "కో"], ["పో", "యింది.</w>"], ["పో", "త"], ["పొంద", "ిన</w>"], ["పే", "రు,</w>"], ["పూ", "ర్తిగా</w>"], ["పు", "ణ"], ["పుణ", "ులు</w>"], ["పీఠ", "భూ"], ["పాలించ", "ారు.</w>"], ["పార్ట", "ీ,</w>"], ["పార", "్లమెంట"], ["పాకిస్థాన్", ",</w>"], ["పాకి", "స్తాన్</w>"], ["పాకి", "స్తాన్"], ["పా", "వ"], ["పా", "డ"], ["పాడ", "ుకుంట"], ["పా", "ండ"], ["పశ్చి", "మ</w>"], ["పరి", "పాలన</w>"], ["పర", "్యాయాలు</w>"], ["పర", "ీక్ష"], ["పద్ధ", "తుల"], ["పద్ధ", "తి"], ["పత", "ాక"], ["పడ", "ిన</w>"], ["పట్టణ", "ాలు,</w>"], ["పండుగ", "లు</w>"], ["పండ", "ు</w>"], ["ప", "్ల"], ["ప", "ుల"], ["ప", "విత"], ["ప", "ల్ల"], ["ప", "లు</w>"], ["ప", "ర్వ"], ["ప", "ట"], ["ప", "క్క"], ["పక్క", "న</w>"], ["న్న", "ై</w>"], ["న్న", "ీ</w>"], ["న్న", "త్వ"], ["నేపాల", "్,</w>"], ["నే", "రే"], ["నె", "హ"], ["ను", "క</w>"], ["నిర్వహ", "ించింది.</w>"], ["నిర్వహ", "ణ</w>"], ["నిర్", "మించ"], ["ని", "యమించ"], ["ని", "పుణులు</w>"], ["ని", "డి"], ["నిడి", "వి"], ["ని", "జాలు</w>"], ["నాగరిక", "త"], ["నా", "థ"], ["నగర", "ాలు</w>"], ["న", "ెలకొ"], ["న", "ులు,</w>"], ["న", "ల"], ["ధ", "ి</w>"], ["దేశాల", "ను</w>"], ["దేశ", "ం.</w>"], ["దేశ", "</w>"], ["దాయ", "ంలో</w>"], ["దాదా", "పు</w>"], ["దా", "ట"], ["ద", "్రా"], ["ద", "ికి</w>"], ["ద", "ండ"], ["తెలుగ", "ు,</w>"], ["తి", "రుగుబాటు</w>"], ["తి", "ని</w>"], ["త", "ూర్"], ["త", "ా</w>"], ["త", "ా"], ["త", "ర్వాత"], ["త", "ను</w>"], ["త", "ంత్ర</w>"], ["త", ",</w>"], ["ణ", "ించ"], ["ఢిల్ల", "ీ</w>"], ["ఢ", "ాకా-ఢిల్లీ-లాహో"], ["డి", "స్"], ["డ", "ైన</w>"], ["డ", "</w>"], ["ట్ల", "కు</w>"], ["టై", "టి"], ["ట", "్రో"], ["ట", "ా</w>"], ["జాత", "ులు,</w>"], ["జాత", "ీయ"], ["జరుపుకు", "ంటారు.</w>"], ["జరిగ", "ే</w>"], ["జనాభ", "ాతో</w>"], ["జనగణ", "న</w>"], ["జన", "వరి</w>"], ["జన", "తా</w>"], ["జ", "ో"], ["జ", "ైన"], ["జ", "ల</w>"], ["జ", "మ్మూ</w>"], ["చైన", "ాను</w>"], ["చే", "సింది.</w>"], ["చే", "స"], ["చెంద", "ుతున్న</w>"], ["చెంద", "ాయి.</w>"], ["చె", "ప్పుకో"], ["చె", "న్నై</w>"], ["చారిత్ర", "క</w>"], ["చ", "ైనా,</w>"], ["చ", "ూడండ"], ["చ", "వి"], ["చ", "ద"], ["గో", "దా"], ["గు", "వ</w>"], ["గు", "ర్త"], ["గణ", "తంత్ర</w>"], ["గ", "్రా"], ["గ", "్ర"], ["గ", "ెలుచుకోవడం</w>"], ["గ", "ినది.</w>"], ["గ", "మన"], ["గ", "త</w>"], ["గ", "ంగ"], ["ఖ", "నిజాలు</w>"], ["క్రీడ", "ా</w>"], ["క్రీడ", "లలో</w>"], ["క్రీ", ".పూ"], ["క్రీ.పూ", "."], ["క్యాలెండ", "ర్"], ["క్", ",</w>"], ["కోల్", "‌కాతా</w>"], ["కోర్ట", "ులు</w>"], ["కృ", "ష్ణ"], ["కూడ", "ుకొ"], ["కూడ", "ుకుని</w>"], ["కూడ", "ి</w>"], ["కుటుంబ", "</w>"], ["కింద", "కు</w>"], ["కి", "లోమీటర్లకు</w>"], ["కాల", "ంలో,</w>"], ["కార్యక్రమ", "ాలు</w>"], ["కార", "ణంగా</w>"], ["కాంగ్రె", "స్</w>"], ["కా", "హార</w>"], ["కా", "పాడుకుంట"], ["కా", "గా</w>"], ["కలి", "సి</w>"], ["కంపెన", "ీ</w>"], ["క", "ూ</w>"], ["క", "ి</w>"], ["క", "ళ</w>"], ["క", "బడ్డ"], ["క", "నుమ"], ["క", "నుక</w>"], ["క", "ంటే</w>"], ["ఒకటి", "గా</w>"], ["ఒక", "టి</w>"], ["ఒ", "లంప"], ["ఒ", "కే"], ["ఐ", "రోపా</w>"], ["ఏర్పడ్డ", "ాయి.</w>"], ["ఏ", "ప్రిల్</w>"], ["ఏ", "క"], ["ఎన్నిక", "ల్లో</w>"], ["ఎన్న", "ుకోబడతారు.</w>"], ["ఎన్న", "ుకుంట"], ["ఎక్కు", "వ</w>"], ["ఎ", "లక్టోరల్</w>"], ["ఎ", "డ"], ["ఉప", "యోగిస్త"], ["ఉత్తరా", "న</w>"], ["ఈ", "స్ట్</w>"], ["ఈ", "శాన్య</w>"], ["ఇవ", "ిక"], ["ఇండ", "ియ"], ["ఇంగ్ల", "ీషు</w>"], ["ఇ", "దే"], ["ఇ", "టీ"], ["ఇ", "క్క"], ["ఇ", "ంద"], ["ఆఫ్ఘ", "ని"], ["ఆధార", "పడిన</w>"], ["అయ", "ినా,</w>"], ["అయ", "ిన"], ["అధికార", "ం</w>"], ["అధికార", "</w>"], ["అతి", "పెద్ద</w>"], ["అ", "వి"], ["అ", "వ"], ["అ", "మెరిక"], ["అ", "ప్ప"], ["అ", "న్న"], ["అ", "ణ"], ["అ", "క్షరాస్యత</w>"], ["అ", "ంద"], ["అ", "ంత"], ["అంత", "ర్జాతీయ</w>"], ["ంద", "్</w>"], ["ం", ";</w>"], ["८", "५</w>"], ["७", "९."], ["७", ",</w>"], ["६", "६</w>"], ["६", "५"], ["६", "२</w>"], ["५", "४"], ["३", "७</w>"], ["३", "२</w>"], ["२०१", "१</w>"], ["२०", "०</w>"], ["२", "८</w>"], ["२", "४</w>"], ["२", "३</w>"], ["२", "२</w>"], ["२", "२."], ["२", "०</w>"], ["१९९", "८</w>"], ["१९९", "६</w>"], ["१९९", "०</w>"], ["१९८", "९</w>"], ["१९८", "०</w>"], ["१९७", "७</w>"], ["१९७", "१</w>"], ["१८", "५"], ["१,", "७"], ["१", "३</w>"], ["१", "०००</w>"], ["१", "०</w>"], ["्रां", "ति"], ["्रा", "म</w>"], ["्रा", "ट</w>"], ["्र", "ो"], ["्रो", "त</w>"], ["्र", "वा"], ["्रवा", "ई</w>"], ["्या", "लय</w>"], ["्या", "दा"], ["्यादा", "तर</w>"], ["्या", "चल</w>"], ["्य", "ु"], ["्ट", "वे"], ["्टवे", "यर</w>"], ["्", "‍"], ["्", "ला"], ["्ला", "देश</w>"], ["्", "म"], ["्म", "पु"], ["्", "</w>"], ["ोष", "ण,</w>"], ["ोल", "ों</w>"], ["ोत्", "तर</w>"], ["ोज", "ना"], ["ो", "र"], ["ोर", "ंजन</w>"], ["ो", "क</w>"], ["ै", "ंक</w>"], ["ेर", "ल"], ["ेरल", ")</w>"], ["े", "ल</w>"], ["े", "मा"], ["ेमा", "ल</w>"], ["े", "दारी</w>"], ["े", "ड"], ["ेड", "ेरल)</w>"], ["े", "ग"], ["ृ", "त्य"], ["ृत्य", "ु</w>"], ["ू", "ट</w>"], ["ु", "म"], ["ु", "ण्"], ["ुण्", "ण</w>"], ["ु", "-"], ["ु-", "गंगा</w>"], ["ी", "सा</w>"], ["ी", "ण</w>"], ["िया", "सत"], ["ियासत", "ों</w>"], ["िया", "चि"], ["ियाचि", "न</w>"], ["िय", "ो</w>"], ["िय", "ार"], ["िय", "स</w>"], ["ि", "म</w>"], ["ार्", "ष"], ["ार्ष", "िक</w>"], ["ार्", "कटि"], ["ार्कटि", "का</w>"], ["ारा", "ष्ट"], ["ाराष्ट", "्र</w>"], ["ार", "ित</w>"], ["ार", ",</w>"], ["ा", "ण</w>"], ["ा", ",</w>"], ["़", "री"], ["हो", "ली,</w>"], ["हुए", "।</w>"], ["हुए", ",</w>"], ["हिस्", "सों</w>"], ["हिन्द", "ी-"], ["हिन्", "द</w>"], ["हि", "ला"], ["हालाँ", "कि"], ["हालाँकि", ",</w>"], ["हाला", "ंकि</w>"], ["हा", "ं</w>"], ["हर", "लाल</w>"], ["हथ", "ियार"], ["ह", "्मपु"], ["ह", "े"], ["ह", "ा</w>"], ["ह", "स्ता"], ["हस्ता", "क्ष"], ["हस्ताक्ष", "र</w>"], ["ह", "स्त"], ["हस्त", "क्षेप</w>"], ["ह", "वे"], ["हवे", "ली</w>"], ["ह", "न"], ["हन", "न</w>"], ["ह", "द</w>"], ["ह", ",</w>"], ["स्वत", "न्त्र"], ["स्वतन्त्र", "ता</w>"], ["स्व", "रु"], ["स्वरु", "प</w>"], ["स्था", "नों</w>"], ["स्था", "ई</w>"], ["स्थ", "ल</w>"], ["स्त", "ेमाल</w>"], ["स्त", "ु"], ["स्ट", "र</w>"], ["स्", "ति"], ["स्", "तर"], ["सौहार्", "द"], ["सौहार्द", "पूर्ण</w>"], ["सो", "सि"], ["सोसि", "एशन</w>"], ["सै", "नि"], ["सैनि", "कों</w>"], ["सेना", ",</w>"], ["से", "ल्"], ["सेल्", "स"], ["सेल्स", "ियस</w>"], ["से", "मी"], ["सू", "त्र"], ["सु", "धार"], ["सिने", "मा"], ["सि", "न्"], ["सिन्", "ध"], ["सिन्ध", "ु-गंगा</w>"], ["सि", "ख</w>"], ["साहि", "त्य</w>"], ["सार", ",</w>"], ["साय", "न</w>"], ["साम", "ने</w>"], ["साम", "ना</w>"], ["सा", "वादी</w>"], ["सा", "फ़"], ["सा", "झ"], ["साझ", "ेदारी</w>"], ["सह", "ित</w>"], ["सर्", "वा"], ["सरकार", "ी</w>"], ["सर", "ा</w>"], ["सम्", "मिल"], ["सम्मिल", "ित</w>"], ["सम्", "प्रभु"], ["सम्", "प"], ["समा", "न</w>"], ["समझौ", "ते</w>"], ["सम", "्राट</w>"], ["सम", "य-"], ["समय-", "समय</w>"], ["सन्", "द</w>"], ["सक", "ल</w>"], ["संग", "्राम</w>"], ["संग", "म</w>"], ["सं", "सार</w>"], ["सं", "बो"], ["संबो", "ध"], ["संबोध", "ित</w>"], ["सं", "बर</w>"], ["सं", "चा"], ["संचा", "लित</w>"], ["सं", "गठ"], ["संगठ", "न</w>"], ["सं", "क्षि"], ["संक्षि", "प्त</w>"], ["स", "्रोत</w>"], ["स", "ॉ"], ["स", "ी,</w>"], ["स", "ियाचिन</w>"], ["स", "वी</w>"], ["स", "तर</w>"], ["स", "त</w>"], ["स", "क्ष"], ["सक्ष", "म</w>"], ["स", "कर</w>"], ["स", "क</w>"], ["ष्ट", "</w>"], ["ष्", "ण"], ["ष", "ित</w>"], ["ष", "ाण</w>"], ["श्रे", "णी</w>"], ["शिय", "र</w>"], ["शिय", "न</w>"], ["शि", "खर</w>"], ["शि", "कार</w>"], ["शास", "निक</w>"], ["शा", "ही</w>"], ["शहर", "ों</w>"], ["शहर", "ीकरण</w>"], ["शक्त", "ियों</w>"], ["श", "्य"], ["श", "ोक</w>"], ["श", "ै"], ["श", "ि</w>"], ["श", "हरी</w>"], ["श", "हर</w>"], ["श", "ब्"], ["शब्", "द</w>"], ["श", "ः</w>"], ["व्य", "क्ति</w>"], ["वै", "श्"], ["विभाज", "ित</w>"], ["विभाज", "न</w>"], ["विद्रो", "ह</w>"], ["विज्ञा", "न</w>"], ["विज", "य</w>"], ["विज", "य"], ["विजय", "नगर</w>"], ["विज", "न</w>"], ["वि", "शेष</w>"], ["वि", "शेष"], ["वि", "मान</w>"], ["वि", "भाग</w>"], ["वि", "धि</w>"], ["वि", "धा"], ["विधा", "यि"], ["वि", "त्"], ["वि", "ज़"], ["विज़", "न</w>"], ["वि", "का</w>"], ["वि", "ंध"], ["विंध", "्याचल</w>"], ["वार", "्य</w>"], ["वा", "लों</w>"], ["वा", "ले</w>"], ["वा", "ली,</w>"], ["वा", "ला</w>"], ["वा", "र</w>"], ["वा", "यु"], ["वायु", "सेना</w>"], ["वा", "म"], ["वाम", "पंथी</w>"], ["वा", "ँ</w>"], ["वा", ",</w>"], ["वर्ण", "ित</w>"], ["वर्", "गी"], ["वर्गी", "करण</w>"], ["वं", "ट"], ["व", "्य</w>"], ["व", "ें</w>"], ["व", "ी"], ["व", "ार्षिक</w>"], ["व", "स्तु"], ["व", "स,</w>"], ["व", "श्य"], ["व", "रि"], ["वरि", "ष्ठ</w>"], ["व", "धान</w>"], ["व", "ज"], ["वज", "ह</w>"], ["व", "क्त</w>"], ["ल्", "म</w>"], ["लोक", "सभा</w>"], ["लो", "क</w>"], ["ले", "शियर</w>"], ["ले", "ख"], ["लु", "क"], ["लुक", "्यों</w>"], ["लि", "ख"], ["लाख", "),</w>"], ["ला", "वा,</w>"], ["ला", "ई</w>"], ["ला", "इ"], ["लड़ा", "क"], ["लड़ाक", "ू</w>"], ["ल", "्यों</w>"], ["ल", "ू</w>"], ["ल", "िया।</w>"], ["ल", "-"], ["र्", "म"], ["र्म", "दा</w>"], ["र्", "जा</w>"], ["रे", "शियन</w>"], ["रे", "लू</w>"], ["रे", "जि"], ["रेजि", "में"], ["रेजिमें", "ट</w>"], ["रूप", "ए</w>"], ["रू", "परे"], ["रूपरे", "खा</w>"], ["री", "ति"], ["रि", "वा"], ["रि", "कों</w>"], ["राष्ट्रप", "ति</w>"], ["राष्ट्र", "ों</w>"], ["राज्य", ",</w>"], ["राज", "ाओं</w>"], ["रा", "।</w>"], ["रा", "शि</w>"], ["रा", "म</w>"], ["रह", "ी।</w>"], ["रत्", "न,</w>"], ["रख", "ने</w>"], ["र-", "इन"], ["र-इन", "-"], ["र-इन-", "चीफ</w>"], ["र", "ैंक</w>"], ["र", "ियासतों</w>"], ["र", "ह</w>"], ["र", "सायन</w>"], ["र", "ल</w>"], ["र", "त</w>"], ["र", "च"], ["र", "क्ष"], ["र", ")</w>"], ["योग", "्य</w>"], ["यू", "रेशियन</w>"], ["यू", "पी"], ["यू", "ना"], ["यु", "द्ध"], ["युद्ध", "ों</w>"], ["या", "ब</w>"], ["य", "ें</w>"], ["य", "हू"], ["य", "हां</w>"], ["य", "शक्ति</w>"], ["य", "ल</w>"], ["य", "द्वीप</w>"], ["य", "दा</w>"], ["य", ",</w>"], ["म्", "र</w>"], ["म्", "बे</w>"], ["मौ", "सम</w>"], ["मोर्", "चा</w>"], ["मैदा", "नों</w>"], ["में", "।</w>"], ["में", ")</w>"], ["मू", "ल्यों</w>"], ["मुद्र", "ा</w>"], ["मुख्य", "रूप</w>"], ["मु", "म्ब"], ["मु", "क्त</w>"], ["मी", "णा</w>"], ["मिश्र", "ित</w>"], ["मिलियन", ")</w>"], ["मिलिय", "न</w>"], ["मिल", "नाड"], ["मिलनाड", "ु</w>"], ["मि", "ला,</w>"], ["मालदी", "व,</w>"], ["मार्", "च</w>"], ["माम", "ले</w>"], ["मा", "ला</w>"], ["मा", "नी</w>"], ["मा", "त्र</w>"], ["मा", "ता</w>"], ["मा", "ता"], ["मही", "ने</w>"], ["महा", "द्वी"], ["महाद्वी", "प"], ["महाद्वीप", "ों</w>"], ["महा", "त्"], ["महात्", "मा</w>"], ["मह", "ाराष्ट्र</w>"], ["मह", "त्"], ["महत्", "वपूर्ण</w>"], ["मना", "ए</w>"], ["मन", "ोरंजन</w>"], ["मध्य", "म"], ["मध्य", "प्रदेश</w>"], ["मध्य", "कालीन</w>"], ["मंत्र", "ण</w>"], ["मं", "चो"], ["मंचो", "ं,</w>"], ["म", "्या"], ["म", "ृत्यु</w>"], ["म", "ि</w>"], ["म", "हिला"], ["म", "जब"], ["मजब", "ूत</w>"], ["म", "ग"], ["मग", "ध</w>"], ["भू", "मि</w>"], ["भू", "-"], ["भू-", "आ"], ["भू-आ", "कृ"], ["भारत", "-"], ["भारत-", "चीन</w>"], ["भा", "बर</w>"], ["भा", "ग"], ["भा", "ई</w>"], ["भ", "े"], ["भ", "ी"], ["भ", "क्ति</w>"], ["ब्र", "ह्मपु"], ["ब्", "ब"], ["बोल", "ा</w>"], ["बो", "ली</w>"], ["बै", "ंक</w>"], ["बे", "टे</w>"], ["बा", "ल</w>"], ["बा", "ढ़</w>"], ["बा", "ंग"], ["बांग", "्लादेश</w>"], ["बा", "ं"], ["बहु", "प"], ["बहुप", "क्ष"], ["बहुपक्ष", "ीय</w>"], ["बन्", "ध</w>"], ["बना", "।</w>"], ["बना", "या</w>"], ["बना", "ए</w>"], ["बना", "ई।</w>"], ["बना", "ई,</w>"], ["बद", "ल"], ["बढ़", "ा।</w>"], ["बंगा", "ल</w>"], ["ब", "ॉ"], ["ब", "ी,</w>"], ["ब", "हती</w>"], ["ब", "लों</w>"], ["ब", "ल</w>"], ["ब", "नी"], ["बनी", "ं।</w>"], ["फ्रां", "स</w>"], ["फ्रां", "स,</w>"], ["फु", "ट</w>"], ["फि", "ल्म</w>"], ["फि", "र</w>"], ["फा", "यदा</w>"], ["फ़", "ेडेरल)</w>"], ["फ़", "ि"], ["फ", "ै"], ["प्रा", "वधान</w>"], ["प्रा", "यद्वीप</w>"], ["प्रा", "प्ति</w>"], ["प्रभा", "वित</w>"], ["प्रचल", "न</w>"], ["प्रका", "श</w>"], ["प्र", "सि"], ["प्र", "सार"], ["प्र", "शासनिक</w>"], ["प्र", "माण</w>"], ["प्र", "धान</w>"], ["प्र", "दर्शन</w>"], ["प्र", "थ"], ["प्रथ", "म</w>"], ["प्र", "गति</w>"], ["पो", "र्"], ["पैमा", "ने</w>"], ["पै", "ं"], ["पैं", "तीस</w>"], ["पे", "न</w>"], ["पूर्", "ति"], ["पूर्ति", "कर्"], ["पूर्तिकर्", "ता</w>"], ["पुरा", "ने</w>"], ["पुरा", "ना</w>"], ["पार", "ं"], ["पारं", "पर"], ["पारंपर", "िक</w>"], ["पा", "न</w>"], ["पा", "त</w>"], ["पा", "त"], ["पात", "काल</w>"], ["पा", "ई</w>"], ["पा", "इन</w>"], ["पा", "ंड"], ["पा", "ँच</w>"], ["पा", "ँच"], ["पहाड़", "ियाँ</w>"], ["पर्वत", "श्रेणी</w>"], ["पर्वत", "माला</w>"], ["पर्व", "त</w>"], ["परं", "पर"], ["परंपर", "ा</w>"], ["परं", "तु</w>"], ["पर", "न्तु</w>"], ["पन", "ियों</w>"], ["पड़", "ा</w>"], ["प", "ी</w>"], ["प", "सन्द</w>"], ["प", "मान</w>"], ["प", "ब्"], ["प", "नी</w>"], ["प", "द</w>"], ["प", "त्य</w>"], ["प", "टल</w>"], ["न्ह", "े</w>"], ["न्यायाल", "यों</w>"], ["न्याया", "धिकार</w>"], ["न्याय", "पालिका</w>"], ["न्न", "ति</w>"], ["न्त", "ु"], ["न्", "द्र</w>"], ["नेतृत्", "‍व</w>"], ["ने", "शिया</w>"], ["ने", "पाल</w>"], ["नृ", "त्य</w>"], ["निवे", "श</w>"], ["निवे", "श"], ["निर्", "माता"], ["निर्", "भर</w>"], ["निरपे", "क्ष"], ["नियु", "क्ति</w>"], ["नियंत्र", "ण</w>"], ["निम्", "नव"], ["निम्नव", "त</w>"], ["निम्", "न"], ["नि", "ष्ठ</w>"], ["नाग", "रिकों</w>"], ["नाग", "रिक</w>"], ["ना", "मों</w>"], ["ना", "त्म"], ["नात्म", "क</w>"], ["ना", "ट"], ["नाट", "क</w>"], ["नव", "ीन</w>"], ["नव", "गठ"], ["नवगठ", "ित</w>"], ["नरे", "ं"], ["नरें", "द्र</w>"], ["न", "।</w>"], ["न", "ारे</w>"], ["न", "र्मदा</w>"], ["न", "ये</w>"], ["न", "या</w>"], ["न", "दी</w>"], ["न", "ग"], ["नग", "रों</w>"], ["न", "ई</w>"], ["धर्म", "निरपेक्ष"], ["ध", "्या"], ["ध", "ी</w>"], ["द्", "वि"], ["द्", "</w>"], ["देख", "ो</w>"], ["देख", "ने</w>"], ["देख", "ते</w>"], ["दे", "व</w>"], ["दे", "व"], ["दे", "ते</w>"], ["दे", "ता</w>"], ["दू", "सरे</w>"], ["दि", "संबर</w>"], ["दि", "वाली,</w>"], ["दि", "वस,</w>"], ["दि", "ए</w>"], ["दा", "द"], ["दाद", "रा</w>"], ["दर्", "श</w>"], ["दर्", "ज़"], ["दक्षिण", "-"], ["दक्षिण-", "पूर्व</w>"], ["द", "ौर</w>"], ["द", "ी,</w>"], ["द", "य</w>"], ["द", "मन</w>"], ["द", "न</w>"], ["थ", "े</w>"], ["थ", "े,</w>"], ["थ", "ी"], ["थ", "वा</w>"], ["थ", "ल</w>"], ["त्र", "ी</w>"], ["त्या", "दि</w>"], ["त्", "व</w>"], ["त्", "पत्ति</w>"], ["त्", "कालीन</w>"], ["ते", "ज़ी</w>"], ["तीसर", "े</w>"], ["ती", "व"], ["ता", "।</w>"], ["ता", "पमान</w>"], ["तरा", "ई</w>"], ["तर", "ी</w>"], ["तट", "ों</w>"], ["त", "ो"], ["त", "ीय</w>"], ["त", "ी,</w>"], ["त", "ियों</w>"], ["त", "ल"], ["त", "मिलनाडु</w>"], ["त", "त्कालीन</w>"], ["त", "ट</w>"], ["त", "क,</w>"], ["त", "ंत्र</w>"], ["त", ",</w>"], ["त", ")</w>"], ["ण्ड", "</w>"], ["डी", "ए"], ["डि", "ग्र"], ["डिग्र", "ी</w>"], ["ड़", "े</w>"], ["ड़", "ीसा</w>"], ["ड", "िया,</w>"], ["ठा", "या</w>"], ["ठ", "वीं</w>"], ["ठ", "</w>"], ["टेली", "विज़न</w>"], ["टेली", "विजन</w>"], ["ट", "ी"], ["ट", "ार्कटिका</w>"], ["ट", "ा"], ["झारख", "ंड</w>"], ["जो", "र</w>"], ["जी", "विका</w>"], ["जी", "त"], ["जी", "डी"], ["जी", "-"], ["जिन", "के</w>"], ["जि", "से</w>"], ["जि", "स</w>"], ["जि", "न्हे</w>"], ["जात", "ीय</w>"], ["ज़", "्यादा</w>"], ["ज़", "ब"], ["जवा", "हरलाल</w>"], ["जरा", "यल</w>"], ["ज", "्ञा"], ["ज", "ारी</w>"], ["ज", "ग"], ["ज", "ंग"], ["जंग", "लों</w>"], ["ज", "ं"], ["छ", "ूट</w>"], ["चा", "लुक्यों</w>"], ["चल", "ी।</w>"], ["चल", "ने</w>"], ["चर", "म</w>"], ["च", "लाया।</w>"], ["च", "ला,</w>"], ["च", "ं"], ["च", ",</w>"], ["घा", "ट</w>"], ["घ", "रेलू</w>"], ["घ", "रा"], ["घ", "निष्ठ</w>"], ["ग्र", "ह</w>"], ["ग्र", "णी</w>"], ["ग्", "लेशियर</w>"], ["गो", "वा</w>"], ["गो", "ंड</w>"], ["गु", "ट</w>"], ["गा", "ँ"], ["ग", "ौ"], ["ग", "ोल"], ["ग", "ू</w>"], ["ग", "ार"], ["ग", "़री"], ["ग", "ए"], ["गए", "।</w>"], ["ग", "ंग"], ["ग", ",</w>"], ["खा", "सकर</w>"], ["खा", "न"], ["ख", "ु"], ["क्ष", "ुण्ण</w>"], ["क्रि", "के"], ["क्रिके", "ट</w>"], ["क्रम", "शः</w>"], ["क्र", "यशक्ति</w>"], ["क्यो", "ंकि</w>"], ["को", "पेन</w>"], ["केन्द्र", "ीय</w>"], ["केंद्र", "ीय</w>"], ["केंद्र", "शासित</w>"], ["केंद्र", "-"], ["कु", "लीन</w>"], ["कि", "न्तु"], ["कि", "नारे</w>"], ["कार", "्रवाई</w>"], ["कार", "्य</w>"], ["काम", "याब</w>"], ["का", "लिक</w>"], ["का", "म</w>"], ["का", "ं"], ["कां", "श</w>"], ["कर्म", "ियों</w>"], ["कर्", "षित</w>"], ["कर्", "नाटक</w>"], ["करोड़", "),</w>"], ["करो", "ड</w>"], ["करवा", "ने</w>"], ["कर", "ेग"], ["कमांड", "र-इन-चीफ</w>"], ["कं", "पनियों</w>"], ["कं", "क"], ["कंक", "ड</w>"], ["क", "्रांति"], ["क", "ीर्"], ["क", "िया"], ["क", "हीं</w>"], ["क", "ल"], ["क", "न्न"], ["क", "ता</w>"], ["औ", "सत</w>"], ["ऐ", "से</w>"], ["ऐ", "सी</w>"], ["एश", "ियाई</w>"], ["एव", "म</w>"], ["एन", "ए"], ["एनए", "स"], ["ए", "सोसिएशन</w>"], ["ए", "क"], ["ए", "ं</w>"], ["ऋ", "तु"], ["ऊ", "र्जा</w>"], ["उभ", "रा।</w>"], ["उप", "ग्रह</w>"], ["उत्पा", "दन</w>"], ["उत्तर-", "पश्चिम</w>"], ["उत्तर", "दा"], ["उत्", "थान</w>"], ["उ", "ल-"], ["उ", "न्होंने</w>"], ["उ", "दय</w>"], ["उ", "ड़ीसा</w>"], ["उ", "ठाया</w>"], ["ई", "स्ट</w>"], ["ई", "साई</w>"], ["ई", "द</w>"], ["इस्ला", "म</w>"], ["इस", "ने</w>"], ["इन", "का</w>"], ["इंडो", "नेशिया</w>"], ["इ", "स्तेमाल</w>"], ["इ", "लावा</w>"], ["इ", "त्यादि</w>"], ["इ", "ण्ड"], ["इ", "जरायल</w>"], ["आया", "तक</w>"], ["आप", "के</w>"], ["आन्", "दोल"], ["आध", "ारित</w>"], ["आ", "वश्य"], ["आ", "वंट"], ["आ", "म</w>"], ["आ", "पूर्तिकर्ता</w>"], ["आ", "पातकाल</w>"], ["आ", "ने</w>"], ["आ", "दर्श</w>"], ["आ", "ठवीं</w>"], ["आ", "क्रम"], ["आ", "कर्षित</w>"], ["आ", "ए</w>"], ["आ", "</w>"], ["अहिं", "सावादी</w>"], ["अव", "सा"], ["अल्", "पाइन</w>"], ["अर्", "ध"], ["अमेरि", "की</w>"], ["अमेरि", "का,</w>"], ["अभिया", "नों</w>"], ["अप", "ेक्षा</w>"], ["अप", "ना"], ["अन्तर्", "गत</w>"], ["अनु", "सूची</w>"], ["अनु", "सार,</w>"], ["अनि", "वार्य</w>"], ["अधि", "कारी</w>"], ["अधि", "कांश</w>"], ["अग", "स्त</w>"], ["अंग्रे", "जों</w>"], ["अं", "तिम</w>"], ["अ", "सैनिक</w>"], ["अ", "सम</w>"], ["अ", "सफल</w>"], ["अ", "सं"], ["अ", "शोक</w>"], ["अ", "शांति</w>"], ["अ", "लावा,</w>"], ["अ", "थवा</w>"], ["अ", "त्य"], ["अ", "ग्रणी</w>"], ["अ", "क्षुण्ण</w>"], ["ंग", "ीण</w>"], ["ं", "तर"], ["ं", "ज</w>"], ["ं", "ख"], ["ā", "y"], ["ā", "rat"], ["|", "</w>"], ["z", "es</w>"], ["z", "en"], ["z", "ed</w>"], ["z", "e</w>"], ["z", "ation</w>"], ["year", "s;</w>"], ["year", "s,</w>"], ["year", "</w>"], ["y", "p"], ["y", "n"], ["y", ";</w>"], ["y", "-"], ["y", ")</w>"], ["x", "ed</w>"], ["win", "ds</w>"], ["wh", "ere</w>"], ["wh", "er"], ["wher", "eas</w>"], ["wh", "at</w>"], ["west", ".</w>"], ["well", "</w>"], ["well", "-"], ["weapon", "s</w>"], ["we", "ep</w>"], ["we", "b"], ["war", "ri"], ["warri", "or"], ["wan", "ted</w>"], ["wan", "a,</w>"], ["wa", "ist</w>"], ["wa", "ist"], ["w", "ood"], ["wood", ",</w>"], ["w", "et"], ["w", "ear</w>"], ["w", "ear"], ["w", "ay"], ["way", "s,</w>"], ["w", "at"], ["viol", "ent</w>"], ["viol", "ence</w>"], ["viol", "enc"], ["victor", "ies</w>"], ["ver", "se"], ["vent", "ion</w>"], ["ven", "e</w>"], ["vari", "ous</w>"], ["vall", "e"], ["v", "oted</w>"], ["v", "ol"], ["vol", "can"], ["v", "ir"], ["v", "al"], ["ut", "t"], ["ut", "e</w>"], ["urr", "ed</w>"], ["ure", ";</w>"], ["urban", "isation</w>"], ["ur", "ta</w>"], ["ur", "is"], ["uris", "dic"], ["urisdic", "tion</w>"], ["ur", "al"], ["ur", "</w>"], ["up", "s,</w>"], ["untouch", "ability</w>"], ["un", "ter"], ["unter", "-"], ["unter-", "ga"], ["unter-ga", "ther"], ["unter-gather", "ers,</w>"], ["un", "res"], ["unres", "olved</w>"], ["un", "ited</w>"], ["un", "itary</w>"], ["un", "i"], ["un", "g</w>"], ["un", "e</w>"], ["um", "b"], ["umb", "ai,</w>"], ["ultan", "e"], ["ultane", "ous"], ["ultaneous", "ly,</w>"], ["ultan", "at"], ["ult", "ure</w>"], ["ul", "os"], ["ulos", "is</w>"], ["ul", "k</w>"], ["ul", "</w>"], ["ucl", "ear-"], ["ub", "erc"], ["uberc", "ulosis</w>"], ["u", "t</w>"], ["u", "su"], ["usu", "ally</w>"], ["u", "k"], ["u", "e</w>"], ["ty", "p"], ["ty", "m"], ["tym", "olog"], ["tymolog", "y</w>"], ["tur", "n</w>"], ["trans", "formed</w>"], ["tradition", "s</w>"], ["tradition", "s.</w>"], ["tra", "dition</w>"], ["tra", "ct"], ["town", "s</w>"], ["tot", "al</w>"], ["tor", "s</w>"], ["threat", "en"], ["threaten", "ed</w>"], ["ther", "ea"], ["the", "or"], ["th", "or"], ["thor", "n</w>"], ["th", "m"], ["th", "en</w>"], ["th", "east</w>"], ["th", "at,</w>"], ["territor", "ies.</w>"], ["territor", "ial</w>"], ["tern", "al</w>"], ["term", ".</w>"], ["ter", ",</w>"], ["templ", "es</w>"], ["tech", "ni"], ["techni", "qu"], ["t", "un"], ["t", "uberculosis</w>"], ["t", "t"], ["t", "ex"], ["tex", "ts</w>"], ["t", "est</w>"], ["t", "emper"], ["t", "el"], ["t", "ea"], ["t", "ary</w>"], ["t", "and"], ["tand", "o"], ["system", "s</w>"], ["surv", "ives</w>"], ["suppl", "anted</w>"], ["sup", "port.</w>"], ["subsequ", "ently</w>"], ["subcontin", "ent"], ["sub", "st"], ["subst", "ant"], ["sub", "duc"], ["su", "pre"], ["supre", "me</w>"], ["su", "per"], ["super", "contin"], ["supercontin", "ent</w>"], ["su", "mp"], ["su", "c"], ["styl", "es,</w>"], ["struct", "ure</w>"], ["stru", "c"], ["stri", "al</w>"], ["stri", "</w>"], ["str", "ong"], ["strong", "ly</w>"], ["str", "ic"], ["str", "al"], ["stral", "ian</w>"], ["stitut", "ion.</w>"], ["sti", "ff"], ["sti", "an"], ["stian", "ity,</w>"], ["ste", "am"], ["steam", "ed</w>"], ["stat", "us</w>"], ["stat", "e,</w>"], ["stand", "ar"], ["standar", "di"], ["standardi", "sed</w>"], ["st", "ud"], ["st", "res"], ["st", "re"], ["spor", "ts</w>"], ["speci", "fic"], ["speci", "es.</w>"], ["speak", "ing</w>"], ["speak", "ers</w>"], ["sp", "read"], ["spread", "ing</w>"], ["sp", "ot"], ["sp", "h"], ["sph", "ere</w>"], ["south", ".</w>"], ["south", ",</w>"], ["sol", "e</w>"], ["so", "on"], ["sm", "all</w>"], ["sm", "all"], ["sit", "es</w>"], ["sid", "er</w>"], ["si", "mil"], ["simil", "ar</w>"], ["si", "a,</w>"], ["shar", "ed</w>"], ["sh", "y</w>"], ["sh", "oul"], ["shoul", "der"], ["sever", "ely</w>"], ["sever", "al</w>"], ["sett", "ing</w>"], ["serv", "ice</w>"], ["ser", "ving</w>"], ["separ", "at"], ["self", "-"], ["secon", "d"], ["second", "-"], ["sec", "ular</w>"], ["sec", "ular,</w>"], ["se", "diment</w>"], ["se", "at"], ["seat", "s</w>"], ["se", "as"], ["se", "als</w>"], ["school", "s</w>"], ["sc", "i"], ["sc", "en"], ["sc", "ale</w>"], ["sav", "our"], ["savour", "y</w>"], ["sar", "i</w>"], ["sa", "w</w>"], ["sa", "fe"], ["safe", "guard</w>"], ["sa", "f"], ["s", "ultanat"], ["s", "mo"], ["s", "low</w>"], ["s", "ion</w>"], ["s", "ea"], ["s", ":</w>"], ["s", ")</w>"], ["s", "'"], ["rul", "ing</w>"], ["rul", "ed</w>"], ["rul", "e,</w>"], ["rol", "if"], ["rolif", "eration</w>"], ["rol", "e</w>"], ["river", "s,</w>"], ["righ", "t</w>"], ["ri", "ya,</w>"], ["ri", "stianity,</w>"], ["ri", "an"], ["rian", "ism</w>"], ["ri", ",</w>"], ["resid", "ents</w>"], ["res", "ourc"], ["rep", "ubl"], ["rep", "t"], ["remain", "ed</w>"], ["rem", "ely</w>"], ["relig", "ion</w>"], ["relig", "ion"], ["relat", "ive</w>"], ["region", ".</w>"], ["reg", "ist"], ["rec", "e"], ["reas", "ing</w>"], ["reas", "ing"], ["re", "w</w>"], ["re", "turned</w>"], ["re", "spec"], ["re", "pe"], ["repe", "at"], ["repeat", "edly</w>"], ["re", "main</w>"], ["re", "lief"], ["re", "fl"], ["re", "di"], ["re", "bellion</w>"], ["re", "ak"], ["re", "-"], ["rat", "ive</w>"], ["rat", "e,</w>"], ["rap", "id"], ["rang", "e</w>"], ["rail", "ways,</w>"], ["ra", "id"], ["ra", "g"], ["ra", ".</w>"], ["r", "up"], ["r", "un"], ["r", "oun"], ["r", "ough"], ["r", "op"], ["r", "gan"], ["rgan", "i"], ["rgani", "zation</w>"], ["r", "du"], ["r", "anges</w>"], ["r", "an</w>"], ["r", "am"], ["ram", "e"], ["put", "s,</w>"], ["prom", "in"], ["produc", "ed</w>"], ["produc", "e</w>"], ["proc", "ess</w>"], ["pro", "jec"], ["pro", "b"], ["prob", "ably</w>"], ["prev", "ent</w>"], ["pres", "ent</w>"], ["pres", "ence</w>"], ["pr", "ising</w>"], ["pow", "er.</w>"], ["pover", "ty</w>"], ["por", "tion</w>"], ["por", "ter</w>"], ["popul", "ation,</w>"], ["popul", "ar"], ["pop", "</w>"], ["polic", "y</w>"], ["polic", "ies</w>"], ["poin", "ts</w>"], ["play", "ed</w>"], ["plain", "s,</w>"], ["plac", "ed</w>"], ["pl", "ement"], ["pl", "e</w>"], ["pl", "ate</w>"], ["pl", "at"], ["pl", "ant</w>"], ["pl", "ain</w>"], ["ph", "ib"], ["ph", "as"], ["peri", "od"], ["period", ".</w>"], ["per", "sist"], ["per", "cent"], ["percent", "age</w>"], ["pay", "e"], ["pat", "ron"], ["past", "oral</w>"], ["pass", "ing</w>"], ["partit", "ion.</w>"], ["part", "ic"], ["part", "ially</w>"], ["par", "ents</w>"], ["par", "ed</w>"], ["paint", "ings</w>"], ["p", "ush</w>"], ["p", "ul"], ["p", "rec"], ["p", "il"], ["p", "et"], ["ow", "ing</w>"], ["ow", "ards</w>"], ["ow", ",</w>"], ["over", "ran</w>"], ["ov", "i"], ["ovi", "et</w>"], ["ov", "e</w>"], ["out", "p"], ["ous", "ly</w>"], ["otion", ",</w>"], ["otec", "h</w>"], ["ot", "tom"], ["ot", "spot"], ["os", "ing</w>"], ["os", "a,</w>"], ["origin", "al</w>"], ["organ", "ised</w>"], ["or", "tion"], ["or", "s</w>"], ["or", "oast"], ["oroast", "rianism</w>"], ["or", "d"], ["or", "ally</w>"], ["op", "en</w>"], ["on", "violent</w>"], ["on", "set</w>"], ["on", "omet"], ["on", "ic</w>"], ["on", "i"], ["on", "ds</w>"], ["on", "d"], ["ond", "wana,</w>"], ["olog", "ically</w>"], ["olog", "ical</w>"], ["olit", "ics</w>"], ["ol", "ut"], ["ol", "lowing</w>"], ["ol", "l"], ["ol", "d</w>"], ["ol", "</w>"], ["og", "am"], ["oet", "ici"], ["oetici", "de,</w>"], ["od", "s</w>"], ["occup", "ation,</w>"], ["occ", "urred</w>"], ["occ", "as"], ["o", "th</w>"], ["o", "si"], ["o", "ch"], ["number", "s,</w>"], ["num", "bers</w>"], ["not", "ably</w>"], ["not", "able</w>"], ["north", "west.</w>"], ["north", "-"], ["north", ",</w>"], ["non-", "co-"], ["non-", "Congress</w>"], ["nomin", "al</w>"], ["ne", "igh"], ["neigh", "b"], ["neighb", "our"], ["national", "ist</w>"], ["n", "s</w>"], ["n", "onviolent</w>"], ["n", "in"], ["n", "ex"], ["nex", "t</w>"], ["n", "et"], ["n", "ear</w>"], ["n", "e</w>"], ["n", "ar"], ["nar", "r"], ["n", "a"], ["mus", "ic.</w>"], ["mult", "i-"], ["movement", ".</w>"], ["mon", "weal"], ["mon", "soon</w>"], ["mon", "soon"], ["mod", "ern"], ["mod", "el</w>"], ["mo", "ist</w>"], ["millenni", "um"], ["mill", "ion"], ["million", "-"], ["mig", "ration</w>"], ["ment", "al</w>"], ["medi", "eval</w>"], ["me", "ga"], ["mega", "diverse</w>"], ["me", "dic"], ["me", "at</w>"], ["me", "at,</w>"], ["me", "as"], ["me", "an"], ["mean", "ing</w>"], ["mathemat", "icians</w>"], ["marri", "ed</w>"], ["mark", "et"], ["market", "s.</w>"], ["mark", "ed</w>"], ["margin", "s</w>"], ["mar", "shy</w>"], ["mar", "it"], ["manuscrip", "t</w>"], ["man", "u"], ["mamm", "als,</w>"], ["mal", "es.</w>"], ["mak", "e</w>"], ["main", "ly</w>"], ["ma", "y</w>"], ["ma", "put"], ["m", "s</w>"], ["m", "ns</w>"], ["m", "en,</w>"], ["m", "ed"], ["m", "at"], ["mat", "eri"], ["m", "as"], ["m", "a</w>"], ["low", "ering</w>"], ["loos", "e-"], ["loose-", "kn"], ["loose-kn", "it</w>"], ["long", "-"], ["literac", "y,</w>"], ["liter", "at"], ["liter", "ary</w>"], ["lim", "ited</w>"], ["lim", "atic</w>"], ["lig", "ion</w>"], ["liberal", "isation</w>"], ["li", "ving</w>"], ["li", "ved</w>"], ["li", "ve</w>"], ["li", "es</w>"], ["lev", "el"], ["leg", "es</w>"], ["lay", "er</w>"], ["lat", "ter</w>"], ["lat", "it"], ["lat", "er,</w>"], ["last", "ed</w>"], ["largest", ".</w>"], ["larg", "er</w>"], ["larg", "ely</w>"], ["larg", "e-"], ["large-", "scale</w>"], ["languag", "es.</w>"], ["languag", "es,</w>"], ["land", "s,</w>"], ["lac", "k"], ["lack", "bu"], ["lackbu", "c"], ["la", "im"], ["laim", "ing</w>"], ["l", "ing"], ["l", "ic,</w>"], ["l", "e.</w>"], ["l", "ay</w>"], ["l", "al</w>"], ["l", "ain"], ["ken", "ing</w>"], ["kamee", "z</w>"], ["k", "urta</w>"], ["k", "ing</w>"], ["k", "ill"], ["k", "ey</w>"], ["k", "at"], ["k", ",</w>"], ["jec", "t</w>"], ["j", "urisdiction</w>"], ["j", "or</w>"], ["j", "oin"], ["j", "ay"], ["jay", "anag"], ["jayanag", "ara</w>"], ["j", "ant"], ["j", "ac"], ["jac", "k"], ["iv", "ing</w>"], ["iv", "ers"], ["iv", "ely</w>"], ["iv", "e-"], ["ive-", "year</w>"], ["iv", "a</w>"], ["iv", "</w>"], ["istor", "y</w>"], ["ist", "s</w>"], ["ist", "ing</w>"], ["isol", "ation</w>"], ["is", "ions</w>"], ["is", "es</w>"], ["is", "ation.</w>"], ["is", "ation,</w>"], ["is", "ans</w>"], ["ion", "ed</w>"], ["io", "sphere</w>"], ["inv", "olving</w>"], ["inv", "olved</w>"], ["intro", "duced</w>"], ["intro", "duc"], ["inter", "vention</w>"], ["inn", "ov"], ["inn", "ings</w>"], ["influenc", "es</w>"], ["inf", "ec"], ["inequalit", "y,</w>"], ["indu", "strial</w>"], ["independ", "ent</w>"], ["increas", "ing</w>"], ["includ", "es</w>"], ["inc", "ome</w>"], ["in", "ternational</w>"], ["in", "ing</w>"], ["in", "form"], ["inform", "ation</w>"], ["in", "ated</w>"], ["im", "ultaneously,</w>"], ["im", "plement"], ["im", "mediately</w>"], ["il", "itated</w>"], ["igh", "t</w>"], ["igh", "t"], ["ig", "er</w>"], ["ig", "aw"], ["ig", "</w>"], ["id", "ence</w>"], ["id", "e</w>"], ["icl", "es</w>"], ["ic", "s,</w>"], ["ic", "le</w>"], ["ic", "ally,</w>"], ["ib", "et"], ["i", "th"], ["i", "ra,</w>"], ["i", "ef"], ["i", "du"], ["idu", "ous</w>"], ["i", "ant</w>"], ["i", "ans</w>"], ["i", ")</w>"], ["hy", "mns</w>"], ["hum", "ans</w>"], ["histor", "y,</w>"], ["histor", "ically</w>"], ["histor", "ical</w>"], ["histor", "ians</w>"], ["high", "ly</w>"], ["high", "est</w>"], ["heredi", "tary</w>"], ["hea", "ded</w>"], ["har", "lal</w>"], ["har", "kh"], ["habit", "at</w>"], ["ha", "u</w>"], ["h", "unter-gatherers,</w>"], ["h", "ubs</w>"], ["h", "otspot"], ["h", "or"], ["h", "om"], ["h", "ol"], ["h", "ered</w>"], ["h", "am"], ["h", "al"], ["hal", "f</w>"], ["h", ",</w>"], ["grow", "</w>"], ["grou", "p</w>"], ["gre", "en"], ["green", "house</w>"], ["gra", "di"], ["gr", "o"], ["gr", "and"], ["gener", "ated</w>"], ["gener", "ally,</w>"], ["gend", "er</w>"], ["gar", "lic,</w>"], ["g", "oods</w>"], ["g", "ods</w>"], ["g", "o"], ["g", "ive</w>"], ["g", "igaw"], ["g", "eograph"], ["g", "e</w>"], ["g", "ained</w>"], ["foun", "d"], ["fort", "ified</w>"], ["fort", "able</w>"], ["form", "s.</w>"], ["form", "ally</w>"], ["form", ",</w>"], ["forest", "s,</w>"], ["forest", ",</w>"], ["for", "c"], ["fol", "k</w>"], ["fl", "our"], ["fl", "ank"], ["fig", "ure"], ["ff", "a"], ["ffa", "ir"], ["fem", "ales</w>"], ["feat", "ure</w>"], ["feat", "ed.</w>"], ["far", "-"], ["fact", "or</w>"], ["f", "re"], ["f", "rame"], ["f", "ood</w>"], ["f", "oeticide,</w>"], ["f", "lowering</w>"], ["f", "low</w>"], ["f", "ive-year</w>"], ["f", "ish</w>"], ["f", "il"], ["f", "ied</w>"], ["f", "est"], ["f", "av"], ["f", "ast</w>"], ["f", "ash"], ["f", "arm"], ["f", "all</w>"], ["exten", "sively</w>"], ["ext", "remely</w>"], ["ext", "end"], ["extend", "s</w>"], ["export", "s.</w>"], ["expand", "ing</w>"], ["exc", "av"], ["excav", "ated</w>"], ["exampl", "e,</w>"], ["ex", "ports</w>"], ["ex", "ported</w>"], ["ex", "isting</w>"], ["ex", "erc"], ["every", "day</w>"], ["ever", "y</w>"], ["ever", "al</w>"], ["ev", "ent"], ["event", "ually</w>"], ["eth", "n"], ["eth", "ical</w>"], ["et", "er"], ["et", "a"], ["est", "ic</w>"], ["ess", "ent"], ["essent", "ial</w>"], ["es", "—"], ["es", "e,</w>"], ["es", ")</w>"], ["erg", "ency,</w>"], ["er", "ly</w>"], ["er", "eal</w>"], ["er", "al"], ["eral", "a</w>"], ["ent", "er</w>"], ["end", "ments</w>"], ["end", "ed</w>"], ["enc", "e.</w>"], ["en", "n"], ["en", "eral</w>"], ["empl", "e</w>"], ["emper", "or</w>"], ["emocrac", "y.</w>"], ["ement", "s</w>"], ["em", "phas"], ["em", "ission"], ["em", "en"], ["elit", "es</w>"], ["elit", "es,</w>"], ["election", "s.</w>"], ["election", ".</w>"], ["elec", "tr"], ["elec", "tion</w>"], ["eg", "ates</w>"], ["ef", "ly</w>"], ["edic", "ts</w>"], ["edic", "</w>"], ["ect", "ing</w>"], ["econom", "y,</w>"], ["econom", "ies</w>"], ["ec", "ted</w>"], ["east", ",</w>"], ["ea", ".</w>"], ["e", "ither</w>"], ["e", "ffec"], ["e", "ed</w>"], ["e", "b"], ["e", "al"], ["eal", "th</w>"], ["dra", "w"], ["domin", "ion</w>"], ["domin", "ance</w>"], ["dom", "estic</w>"], ["divers", "ity.</w>"], ["div", "or"], ["dition", "al</w>"], ["disput", "ed</w>"], ["dish", "es</w>"], ["discrimin", "at"], ["discriminat", "or"], ["diff", "used</w>"], ["dic", "</w>"], ["di", "seas"], ["di", "fied</w>"], ["di", "ed</w>"], ["di", "d</w>"], ["di", ",</w>"], ["dev", "ast"], ["der", "ived</w>"], ["depend", "ent</w>"], ["den", "se</w>"], ["del", "egates</w>"], ["defin", "ed</w>"], ["declar", "ed</w>"], ["dec", "lin"], ["dec", "iduous</w>"], ["de", "sc"], ["de", "feated.</w>"], ["d", "yn"], ["d", "rew</w>"], ["d", "own</w>"], ["d", "own"], ["d", "oc"], ["d", "o</w>"], ["d", "en</w>"], ["d", "emocratic</w>"], ["d", "emocracy.</w>"], ["d", "em"], ["d", "ates</w>"], ["curr", "enc"], ["cult", "ure</w>"], ["cu", "t</w>"], ["cu", "st"], ["cu", "is"], ["crust", ",</w>"], ["cre", "ativ"], ["creativ", "ity</w>"], ["cre", "ating</w>"], ["court", "s.</w>"], ["court", "s,</w>"], ["countr", "y,</w>"], ["countr", "y's</w>"], ["coun", "tri"], ["contribut", "ed</w>"], ["cont", "ra"], ["con", "sump"], ["con", "sider</w>"], ["con", "cep"], ["compl", "ex</w>"], ["compl", "et"], ["comp", "any</w>"], ["com", "prising</w>"], ["com", "fortable</w>"], ["col", "leges</w>"], ["coast", "line</w>"], ["coast", "al</w>"], ["coalit", "ion,</w>"], ["co", "st</w>"], ["co", "al"], ["class", "es</w>"], ["clas", "s.</w>"], ["cl", "oth"], ["cl", "ose</w>"], ["cl", "eared</w>"], ["civil", "ian</w>"], ["citi", "zen"], ["citi", "es,</w>"], ["churidar", "s.</w>"], ["character", "istic</w>"], ["ch", "ild</w>"], ["ch", "e"], ["ch", "ap"], ["ch", "a"], ["cha", "emen"], ["centr", "e</w>"], ["ce", "ed"], ["cast", "es,</w>"], ["cast", "e-"], ["cast", "e,</w>"], ["car", "ved</w>"], ["cal", "end"], ["ca", "use</w>"], ["c", "ris"], ["c", "over"], ["c", "limatic</w>"], ["c", "ivil</w>"], ["c", "il</w>"], ["c", "ereal</w>"], ["c", "att"], ["bro", "ad</w>"], ["bri", "efly</w>"], ["breath", "ing</w>"], ["br", "ought</w>"], ["br", "on"], ["bor", "ne</w>"], ["bor", "ders</w>"], ["bo", "di"], ["bir", "th</w>"], ["bi", "otech</w>"], ["beg", "innings</w>"], ["b", "ulk</w>"], ["b", "reak"], ["b", "ottom"], ["b", "onds</w>"], ["b", "lackbuc"], ["b", "l"], ["b", "it"], ["b", "iodiversity</w>"], ["b", "and"], ["band", "h"], ["b", "an"], ["b", "al</w>"], ["b", "al"], ["b", "a</w>"], ["ay", "back</w>"], ["aw", "a"], ["awa", "harlal</w>"], ["aver", "age</w>"], ["av", "ar"], ["at", "tract"], ["at", "ives</w>"], ["associ", "ated</w>"], ["associ", "ate</w>"], ["ass", "inated</w>"], ["ass", "ical</w>"], ["ass", "assinated</w>"], ["as", "ive</w>"], ["as", "i</w>"], ["art", "s,</w>"], ["art", "istic</w>"], ["art", "isans</w>"], ["arnat", "ic</w>"], ["arm", "s</w>"], ["area", ".</w>"], ["architect", "ure,</w>"], ["arch", "aic</w>"], ["ar", "na"], ["ar", "is"], ["ar", "e:</w>"], ["ar", "c"], ["ar", "as"], ["app", "oin"], ["app", "lied</w>"], ["app", "ear</w>"], ["ant", "s,</w>"], ["ant", "ly</w>"], ["ann", "ual</w>"], ["animal", "s</w>"], ["ang", "etic</w>"], ["anc", "es</w>"], ["anc", "e,</w>"], ["an", "at"], ["an", "a</w>"], ["an", ".</w>"], ["amm", "u</w>"], ["am", "phib"], ["am", "endments</w>"], ["am", "</w>"], ["all", "s</w>"], ["al", "s.</w>"], ["al", "liance</w>"], ["al", "ised</w>"], ["al", "i</w>"], ["al", "ed</w>"], ["al", "a,</w>"], ["al", ".</w>"], ["aksh", "ag"], ["aksh", "ad"], ["akshad", "weep</w>"], ["aj", "paye"], ["ain", "st</w>"], ["ag", "re"], ["ag", "e.</w>"], ["ag", "ainst</w>"], ["ag", "ain</w>"], ["af", "ter"], ["af", "fir"], ["adv", "ent</w>"], ["adv", "anced</w>"], ["adop", "ted</w>"], ["administ", "ration</w>"], ["ad", "her"], ["ad", "em"], ["ad", "ditional</w>"], ["ad", ",</w>"], ["acc", "ess</w>"], ["ac", "tion</w>"], ["ac", "coun"], ["ac", "cording</w>"], ["abl", "es,</w>"], ["ab", "ove</w>"], ["ab", "ha,</w>"], ["a", "—"], ["a", "ː"], ["a", "ut"], ["a", "th"], ["a", "s.</w>"], ["a", "i</w>"], ["a", "ffec"], ["a", "ffair"], ["a", "'s</w>"], ["]", "</w>"], ["Z", "oroastrianism</w>"], ["Y", "akshag"], ["W", "ayback</w>"], ["W", "ar</w>"], ["Vi", "jayanagara</w>"], ["V", "is"], ["V", "edic</w>"], ["V", "ajpaye"], ["V", ".</w>"], ["Un", "t"], ["Un", "ion.</w>"], ["US$", "2,"], ["US$", "100</w>"], ["UP", "A</w>"], ["U", "rdu"], ["Treat", "y,</w>"], ["Th", "ey</w>"], ["Th", "ail"], ["Tam", "il"], ["T", "o</w>"], ["T", "ibet"], ["T", "er"], ["T", "emple</w>"], ["Stat", "es,</w>"], ["Sikh", "s,</w>"], ["Sik", "h</w>"], ["Sha", "stri</w>"], ["Sh", "iva</w>"], ["Sh", "e</w>"], ["Se", "a</w>"], ["S", "ultanate</w>"], ["S", "oviet</w>"], ["S", "ome</w>"], ["S", "indh"], ["S", "imultaneously,</w>"], ["S", "everal</w>"], ["S", "ea.</w>"], ["S", "ch"], ["S", "arna"], ["S", "ant"], ["S", "ang"], ["S", "abha,</w>"], ["S", "I"], ["Re", "ligion</w>"], ["Raj", "puts,</w>"], ["Raj", "iv</w>"], ["R", "am"], ["Pr", "of"], ["Platea", "u,</w>"], ["Plat", "e.</w>"], ["Pakistan", ",</w>"], ["Pakistan", ")</w>"], ["P", "roliferation</w>"], ["P", "resid"], ["P", "olitics</w>"], ["P", "lain"], ["P", "art"], ["P", ".</w>"], ["O", "ut"], ["O", "rganization</w>"], ["O", "ld</w>"], ["O", "ct"], ["Nor", "theast</w>"], ["Non-", "Proliferation</w>"], ["Nicob", "ar</w>"], ["ND", "A</w>"], ["N", "ew"], ["N", "et"], ["N", "ep"], ["N", "at"], ["N", "a"], ["Myanmar", ",</w>"], ["Mo", "di</w>"], ["Mar", "ath"], ["Mal", "ay"], ["Ma", "jor</w>"], ["Ma", "h"], ["Ma", "ch"], ["M", "umbai,</w>"], ["M", "in"], ["M", "an"], ["Lank", "an</w>"], ["L", "i"], ["L", "at"], ["L", "akshadweep</w>"], ["Kashm", "ir</w>"], ["Kashm", "ir"], ["K", "osi"], ["K", "erala</w>"], ["K", "aver"], ["Jain", "ism</w>"], ["Jain", "ism,</w>"], ["J", "une</w>"], ["J", "u"], ["J", "harkh"], ["J", "awaharlal</w>"], ["J", "ammu</w>"], ["Islam", ",</w>"], ["Is", "lands,</w>"], ["Indonesi", "a.</w>"], ["Indo-Ar", "yan</w>"], ["Indo-", "G"], ["Indo-G", "angetic</w>"], ["Indo-", "European</w>"], ["Indo-", "Au"], ["Indo-Au", "stralian</w>"], ["Indi", "ans.</w>"], ["Ind", "o"], ["In", "ternational</w>"], ["In", "c"], ["I", "m"], ["I", "I,</w>"], ["Hindust", "ani</w>"], ["Hindust", "an</w>"], ["Himalay", "as</w>"], ["Himalay", "as.</w>"], ["Himalay", "as,</w>"], ["Himalay", "an</w>"], ["H", "istory</w>"], ["H", "ealth</w>"], ["Gujar", "at</w>"], ["Ghat", "s,</w>"], ["Geograph", "y</w>"], ["Gand", "h"], ["GD", "P,</w>"], ["G", "ondwana,</w>"], ["G", "eneral</w>"], ["Fron", "t</w>"], ["For", "eign</w>"], ["Factbo", "ok</w>"], ["F", "ollowing</w>"], ["F", ")</w>"], ["Europ", "e.</w>"], ["Euras", "i"], ["Em", "ergency,</w>"], ["Econ", "omy</w>"], ["East", "ern</w>"], ["E", "tymology</w>"], ["E", "l"], ["Deser", "t,</w>"], ["Del", "hi,</w>"], ["D", "is"], ["D", "emocratic</w>"], ["Coun", "try</w>"], ["Congres", "s"], ["Comp", "an"], ["Com", "monweal"], ["Cl", "assical</w>"], ["Ch", "ristianity,</w>"], ["Ch", "ol"], ["Ch", "ief"], ["Ch", "hau</w>"], ["Ch", "ess</w>"], ["Ch", "amp"], ["CE", "E</w>"], ["CE", "</w>"], ["CE", ".</w>"], ["C", "ups,</w>"], ["C", "ulture</w>"], ["C", "ricket</w>"], ["C", "limate</w>"], ["C", "av"], ["C", "arnatic</w>"], ["C", "I"], ["C", "</w>"], ["Buddh", "ist"], ["Buddh", "ism,</w>"], ["Buddh", "a</w>"], ["British", "-"], ["British-", "style</w>"], ["Brah", "maput"], ["Bhar", "at</w>"], ["Bh", "ang"], ["Banglade", "sh</w>"], ["B", "iodiversity</w>"], ["B", "etween</w>"], ["B", "al"], ["B", "ah"], ["B", "B"], ["Asi", "ans</w>"], ["Ar", "t"], ["Al", "liance</w>"], ["Ac", "t,</w>"], ["A", "t"], ["A", "n</w>"], ["A", "jant"], ["A", "genc"], ["A", "chaemen"], ["=", "</w>"], ["9", "-"], ["9", ",</w>"], ["9", ",000</w>"], ["9", "%.</w>"], ["8", "–2"], ["8", "లో</w>"], ["8", "3,"], ["8", "3"], ["8", "0</w>"], ["8", ","], ["7.", "5%</w>"], ["7,", "5"], ["7,5", "17</w>"], ["7", "లో</w>"], ["7", "th</w>"], ["7", "6</w>"], ["7", "4."], ["7", "2."], ["7", "000</w>"], ["7", "/"], ["6.", "0"], ["6", "th</w>"], ["6", "4</w>"], ["6", "4%</w>"], ["6", "3</w>"], ["6", "2"], ["6", "00</w>"], ["6", "0"], ["6", ".</w>"], ["55", "."], ["5", ";</w>"], ["5", "0"], ["5", "-0"], ["5", ","], ["42", "2</w>"], ["4", "6%</w>"], ["4", ".</w>"], ["4", ","], ["36", "1</w>"], ["30", ",000</w>"], ["3", "9%</w>"], ["3", "3"], ["3", "2</w>"], ["3", "1."], ["3", ",</w>"], ["26", "న</w>"], ["202", "6,</w>"], ["202", "3.</w>"], ["202", "2</w>"], ["202", "2,</w>"], ["202", "1</w>"], ["2019", "</w>"], ["2016", "ರಲ್ಲಿ</w>"], ["2010", ".</w>"], ["201", "4</w>"], ["201", "2</w>"], ["201", "2"], ["201", "1"], ["200", "8</w>"], ["200", "8,</w>"], ["200", "7</w>"], ["200", "4</w>"], ["200", "1,</w>"], ["20", "th</w>"], ["2.", "8</w>"], ["2", "9</w>"], ["2", "5</w>"], ["2", "5"], ["2", "1</w>"], ["2", "-"], ["2", "%.</w>"], ["199", "9.</w>"], ["199", "8</w>"], ["198", "4</w>"], ["197", "5,</w>"], ["197", "4</w>"], ["197", "1,</w>"], ["196", "0"], ["1950", ".</w>"], ["195", "8</w>"], ["19", "30"], ["19", "3"], ["19", "2"], ["19", "00</w>"], ["19", "0"], ["190", "1</w>"], ["18", "th</w>"], ["17", "th</w>"], ["17", "."], ["16.", "6%</w>"], ["12", "1,0"], ["121,0", "1,93,"], ["10", "th</w>"], ["1.", "1</w>"], ["1,", "200</w>"], ["1", "4</w>"], ["1", "4%</w>"], ["1", "000</w>"], ["1", "00"], ["100", ",000</w>"], ["1", "%.</w>"], ["0000", "00</w>"], ["000", ",000</w>"], ["00", "–"], ["00", "000</w>"], ["0", ",</w>"], ["0", ","], ["/", "वर्ष</w>"], ["/", "</w>"], ["..", "."], [".", "೮"], [".", "/वर्ष</w>"], ["-", "s"], ["-", "majority</w>"], ["-", "day</w>"], ["-", "body</w>"], [",", "\"</w>"], [")", "।</w>"], ["(", "Ἰνδ"], ["(", "೦."], ["(", "कुल</w>"], ["(", "including</w>"], ["(", "ii"], ["(", "India"], ["(", "B"], ["(", "Art"], ["(", "196"], ["(", "17"], ["(", "0."], ["(", "\""], ["'", "</w>"], ["%", ").</w>"], ["\"", "భరత"], ["\"", ")</w>"], ["₹", "20"], ["₹20", "4."], ["₹204.", "4</w>"], ["₹", "2"], ["₹2", "35"], ["₹235", ".2"], ["₹235.2", "4</w>"], ["†", "</w>"], ["“", "नेट</w>"], ["“", "R"], ["“R", "oyal"], ["“Royal", "”</w>"], ["’", "</w>"], ["’", ",</w>"], ["‘", "संविधान</w>"], ["‘", "द"], ["‘द", "लि"], ["‘दलि", "तों</w>"], ["‘", "आधुनिक</w>"], ["—", "ह"], ["—ह", "टा</w>"], ["—", "जैसे</w>"], ["—", "with</w>"], ["—", "which</w>"], ["—", "were</w>"], ["—", "to</w>"], ["—", "such</w>"], ["—", "sol"], ["—sol", "i"], ["—soli", "dified</w>"], ["—", "passing</w>"], ["—", "headed</w>"], ["—", "expres"], ["—expres", "sed</w>"], ["—", "cover"], ["—cover", "ing</w>"], ["—", "cooked</w>"], ["—", "bec"], ["—bec", "a"], ["—beca", "use</w>"], ["—", "ISBN</w>"], ["–201", "4,</w>"], ["–201", "3,</w>"], ["–201", "2</w>"], ["–201", "0,</w>"], ["–200", "9.</w>"], ["–200", "4</w>"], ["–200", "1"], ["–2001", ").</w>"], ["–", "५"], ["–५", "२"], ["–५२", ",</w>"], ["–", "Pakistan</w>"], ["–", "K"], ["–K", "ad"], ["–Kad", "ai,</w>"], ["–", "Arab"], ["–Arab", "ic</w>"], ["–", "60"], ["–60", "%</w>"], ["–", "35"], ["–35", "1</w>"], ["–", "20</w>"], ["–", "1990</w>"], ["–", "197"], ["–197", "5</w>"], ["–", "13</w>"], ["–", "0</w>"], ["‍", "बर</w>"], ["‍", "प"], ["‍प", "कालिक</w>"], ["‍", "तरी</w>"], ["‌", "స్థ"], ["‌స్థ", "‌</w>"], ["‌", "వాణా</w>"], ["‌", "వ"], ["‌వ", "‌స్థ‌</w>"], ["‌", "ఫ"], ["‌ఫ", "ర్"], ["‌ఫర్", "మే"], ["‌ఫర్మే", "ష"], ["‌ఫర్మేష", "న్</w>"], ["‌", "త"], ["‌త", "ంలో</w>"], ["‌", "కు</w>"], ["ṭ", "ā"], ["ṭā", "dh"], ["ṭādh", "y"], ["ṭādhy", "āy"], ["ṭādhyāy", "ī"], ["ṭādhyāyī", "</w>"], ["ṣ", "ṭādhyāyī</w>"], ["ṇ", "in"], ["ṇin", "i.</w>"], ["ṇ", "a,</w>"], ["ṅ", "ga"], ["ṅga", ";</w>"], ["೯", "೮</w>"], ["೯", "೦೦೦</w>"], ["೯", "೦</w>"], ["೮", "೫"], ["೮೫", "೭</w>"], ["೮", "೦೦</w>"], ["೮", "೦."], ["೮೦.", "೫</w>"], ["೭", "೭"], ["೭೭", "(7"], ["೭೭(7", "7"], ["೭೭(77", ")</w>"], ["೭", "೬"], ["೭೬", "</w>"], ["೭", "ನೇ</w>"], ["೬", "೪"], ["೬೪", ".೮"], ["೬೪.೮", ".</w>"], ["೬", "೦೦</w>"], ["೬", "ನೇ</w>"], ["೫", "೦೦</w>"], ["೫", ",</w>"], ["೪", "೭</w>"], ["೩", "೩"], ["೩೩", "</w>"], ["೨೦೧", "೮</w>"], ["೨೦೦೯", "ರ</w>"], ["೨೦೦೯", "</w>"], ["೨೦", "೧೯"], ["೨೦೧೯", "/"], ["೨೦೧೯/", "2019"], ["೨೦೧೯/2019", "ರ</w>"], ["೨", "೬೦೦</w>"], ["೨", "೨</w>"], ["೨", "೦</w>"], ["೨", "."], ["೨.", "೩೩</w>"], ["೧೯೭", "೫</w>"], ["೧೯೭", "೪</w>"], ["೧೯", "೯೮</w>"], ["೧೯", "೪೭</w>"], ["೧೯", "೦೦</w>"], ["೧೯", "೦"], ["೧೯೦", "೧"], ["೧೯೦೧", "</w>"], ["೧೯", "ನೇ</w>"], ["೧೩", "೦</w>"], ["೧೩", "."], ["೧೩.", "೪</w>"], ["೧", "೮೫೭</w>"], ["೧", "೭</w>"], ["೧", "೬ನೇ</w>"], ["೧", "೫,</w>"], ["೧", "೨</w>"], ["೧", "೧"], ["೧೧", ","], ["೧೧,", "೦೦೦</w>"], ["೧", "೦</w>"], ["೧", ".೮"], ["೧.೮", "೪</w>"], ["್ವ", "ೀ"], ["್ವೀ", "ಪ</w>"], ["್ವ", "ದಲ್ಲ"], ["್ವದಲ್ಲ", "ಿತ್ತು.</w>"], ["್ರಾ", "ವಿ"], ["್ರಾವಿ", "ಡ</w>"], ["್ರಾ", "ನ್"], ["್ರಾನ್", "ಸ್</w>"], ["್ರ", "ೋ"], ["್ರೋ", "ಲ"], ["್ರೋಲ", "ಿಯ"], ["್ರೋಲಿಯ", "ಮ್</w>"], ["್ರ", "ೆ"], ["್ರೆ", "ಂಚ"], ["್ರೆಂಚ", "್</w>"], ["್ರ", "ಹ್ಮ"], ["್ರಹ್ಮ", "ಪುತ್ರ"], ["್ರಹ್ಮಪುತ್ರ", ",</w>"], ["್ರ", "ಮಾನ"], ["್ರಮಾನ", "ದ</w>"], ["್ರ", "ಗಳ"], ["್ರಗಳ", "ಿಂದ</w>"], ["್ಯಾ", "ಧಿಪ"], ["್ಯಾಧಿಪ", "ತಿಗಳು</w>"], ["್ಯಾ", "ಕ್"], ["್ಯಾಕ್", "</w>"], ["್ಯ", "ಾ</w>"], ["್ಯ", "ವನ್ನು</w>"], ["್ಯ", "ಮಯ"], ["್ಯಮಯ", "ವಾಗ"], ["್ಯಮಯವಾಗ", "ಿಸಿವೆ.</w>"], ["್ಯ", "ಮ</w>"], ["್ಯ", "ನ್</w>"], ["್ಯ", "ಂತ"], ["್ಯಂತ", "ನ</w>"], ["್ಯ", ",</w>"], ["್ಮ", "ಿಕ</w>"], ["್ದ", "ವರನ್ನು</w>"], ["್ತ", "ು</w>"], ["್ತ", "ಿಯಿಂದ</w>"], ["್ತ", "</w>"], ["್ಕ", "ಿದ</w>"], ["್ಕ", "ಾ"], ["್ಕಾ", "ದಲ್ಲಿ</w>"], ["್", "ಸ್</w>"], ["್", "ಮ</w>"], ["್", "ಪ"], ["್ಪ", "ಗಿನ</w>"], ["್", "ದ</w>"], ["್", "ಣ"], ["್ಣ", "ಾ,</w>"], ["್", "ಗ"], ["್ಗ", "ಗಳು</w>"], ["್", ",</w>"], ["ೌ", "ರಾ"], ["ೌರಾ", "ಣ"], ["ೌರಾಣ", "ಿಕ</w>"], ["ೌ", "ರ"], ["ೌರ", "್ಯ</w>"], ["ೌ", "ಗೋ"], ["ೌಗೋ", "ಳ"], ["ೌಗೋಳ", "ಿಕ</w>"], ["ೋ", "ರ್"], ["ೋರ್", "ಚು"], ["ೋರ್ಚು", "ಗ"], ["ೋರ್ಚುಗ", "ೀ"], ["ೋರ್ಚುಗೀ", "ಸ್"], ["ೋರ್ಚುಗೀಸ್", ",</w>"], ["ೋ", "ಪ"], ["ೋಪ", "ಿಯನ್</w>"], ["ೋ", "ಧ"], ["ೋಧ", "ನಾ</w>"], ["ೋ", "ಡ"], ["ೋಡ", "ಿ</w>"], ["ೋ", "-"], ["ೋ-", "ಆರ"], ["ೋ-ಆರ", "್ಯನ್</w>"], ["ೊಳ್ಳ", "ಲಾರಂಭಿಸಿದರು.</w>"], ["ೊಳ", "ಪಟ್ಟ"], ["ೊಳಪಟ್ಟ", "ಿತು.</w>"], ["ೊಂಡ", "ಿದ"], ["ೊಂಡಿದ", "ೆ</w>"], ["ೊ", "ಲ್ಲಿ"], ["ೊಲ್ಲಿ", ","], ["ೊಲ್ಲಿ,", "ದಕ್ಷಿ"], ["ೊಲ್ಲಿ,ದಕ್ಷಿ", "ಣ"], ["ೊಲ್ಲಿ,ದಕ್ಷಿಣ", "ದಲ್ಲಿ</w>"], ["ೊ", "ರೆ"], ["ೊರೆ", "ತ"], ["ೊರೆತ", "ಿರುವ</w>"], ["ೊ", "ರಾಷ್ಟ್ರ"], ["ೊರಾಷ್ಟ್ರ", "ಿಯ"], ["ೊರಾಷ್ಟ್ರಿಯ", "ನಿ"], ["ೊರಾಷ್ಟ್ರಿಯನಿ", "ಜ"], ["ೊರಾಷ್ಟ್ರಿಯನಿಜ", "಼"], ["ೊರಾಷ್ಟ್ರಿಯನಿಜ಼", "ಂ"], ["ೊರಾಷ್ಟ್ರಿಯನಿಜ಼ಂ", ",</w>"], ["ೊ", "ರ</w>"], ["ೈ", "ಸ್ತ"], ["ೈಸ್ತ", "</w>"], ["ೈ", "ವಿಧ"], ["ೈವಿಧ", "್ಯಮಯವಾಗಿಸಿವೆ.</w>"], ["ೈ", "ನ"], ["ೈನ", "್ಯ</w>"], ["ೈ", "ಗ"], ["ೈಗ", "ಾರಿಕ"], ["ೈಗಾರಿಕ", "ೆ.</w>"], ["ೈ", "ಋ"], ["ೈಋ", "ತ"], ["ೈಋತ", "್ಯದಲ್ಲಿ</w>"], ["ೇ", "ರೆ</w>"], ["ೇ", "ತ್ರ"], ["ೇತ್ರ", "ಗಳಲ್ಲಿ</w>"], ["ೇ", "ಣ"], ["ೇಣ", "ಿ</w>"], ["ೇ", "ಟ"], ["ೇಟ", "್ಕಾದಲ್ಲಿ</w>"], ["ೇ", "ಖ"], ["ೇಖ", "ಗಳು</w>"], ["ೇ", ".</w>"], ["ೆರ", "ೆಯ</w>"], ["ೆರ", "ಡ"], ["ೆರಡ", "ನೆಯ</w>"], ["ೆಯ", "ೆ"], ["ೆಯೆ", "ತ್ತ"], ["ೆಯೆತ್ತ", "ಲಾರಂಭಿಸಿದ"], ["ೆಯೆತ್ತಲಾರಂಭಿಸಿದ", "ವು.</w>"], ["ೆಯ", "ುತ್ತಿರುವ</w>"], ["ೆಯ", "ು"], ["ೆಯು", "ಳ"], ["ೆಯುಳ", "ಿಕ"], ["ೆಯುಳಿಕ", "ೆಗಳ"], ["ೆಯುಳಿಕೆಗಳ", "ು.</w>"], ["ೆಯ", "ಾಗಿದೆ.</w>"], ["ೆನ", "ೈ</w>"], ["ೆನ", "ಿ</w>"], ["ೆದ", "ಿವೆ.</w>"], ["ೆಗಳ", "ೆಂದರೆ</w>"], ["ೆಗಳ", "</w>"], ["ೆ", "ಷ"], ["ೆಷ", "ಿ"], ["ೆಷಿ", "ನ್</w>"], ["ೆ", "ಟ"], ["ೆಟ", "್ರೋಲಿಯಮ್</w>"], ["ೆ", "ಗಿನ</w>"], ["ೆ", "ಗಳು</w>"], ["ೆ", "ಂಡ"], ["ೆಂಡ", "ಿನ</w>"], ["ೃಷ", "ಭ"], ["ೃಷಭ", "ದೇ"], ["ೃಷಭದೇ", "ವ"], ["ೃಷಭದೇವ", "ನ</w>"], ["ೃತ", "ಿಯನ್ನು</w>"], ["ೃ", "ತ್ತ"], ["ೃತ್ತ", "ಿಗಳಲ್ಲಿ</w>"], ["ೂ", "ಸ್ಥಾನ</w>"], ["ೂ", "ದ"], ["ೂದ", "ಿ,</w>"], ["ೂ", "ತ"], ["ೂತ", "ಟದ</w>"], ["ೂ", "ಡ</w>"], ["ೂ", "ಡ"], ["ೂಡ", "ಿಸ"], ["ೂಡಿಸ", "ಿದ</w>"], ["ೂ", "ಟ"], ["ೂಟ", ",</w>"], ["ೂ", "ಚ"], ["ೂಚ", "ಿತ"], ["ೂಚಿತ", "ವಾಗಿದೆ.</w>"], ["ುಶ", "್ಯಂತನ</w>"], ["ುಶ", "ಲ</w>"], ["ುಶ", "ಕ್ತ"], ["ುಶಕ್ತ", "ಿ</w>"], ["ುತ್ತ", "ವ"], ["ುತ್ತವ", "ೆ.</w>"], ["ು", "ವರ"], ["ುವರ", "ಿದ"], ["ುವರಿದ", "ಿದ್ದು,</w>"], ["ು", "ವ"], ["ುವ", "ಳಿ</w>"], ["ು", "ರ"], ["ುರ", "್ತು</w>"], ["ು", "ಪ"], ["ುಪ", "್ತ</w>"], ["ು", "ದ"], ["ುದ", "ರಿಂದ</w>"], ["ು", "ತ್ವ"], ["ುತ್ವ", "ವಿರು"], ["ುತ್ವವಿರು", "ವ</w>"], ["ು", "ಗಡ"], ["ುಗಡ", "ೆ</w>"], ["ು", "ಕ"], ["ುಕ", "ಟ್ಟ"], ["ುಕಟ್ಟ", "ೆ</w>"], ["ು", ":</w>"], ["ು", ")</w>"], ["ೀಕ", "ರ"], ["ೀಕರ", "ಣ</w>"], ["ೀ", "ಸ್ತ"], ["ೀಸ್ತ", "ಾನ"], ["ೀಸ್ತಾನ", "ಗಳ</w>"], ["ೀ", "ವ"], ["ೀವ", "್ಸ್</w>"], ["ೀ", "ತಿ</w>"], ["ೀ", "ತ"], ["ೀತ", "ಿಯನ್ನು</w>"], ["ಿಸಿದ", "ರೆ</w>"], ["ಿಸಲಾಗ", "ಿರುವ</w>"], ["ಿಸಲಾಗ", "ಿದೆ:</w>"], ["ಿಸಲಾಗ", "ಿದೆ.</w>"], ["ಿಸಲ", "ು</w>"], ["ಿಸ", "ುವ</w>"], ["ಿಸ", "ುತ್ತವೆ.</w>"], ["ಿಸ", "ಿಕ"], ["ಿಸಿಕ", "ೊಳ್ಳಲಾರಂಭಿಸಿದರು.</w>"], ["ಿವ", "ೆ</w>"], ["ಿಲಿಯ", "ನೇರ್"], ["ಿಲಿಯನೇರ್", "‌</w>"], ["ಿಲ", "ಾ"], ["ಿಲಾ", "ಯುಗ"], ["ಿಲಾಯುಗ", "ದ</w>"], ["ಿರು", "ವ"], ["ಿರುವ", "ವರನ್ನು</w>"], ["ಿಯ", "ೇ</w>"], ["ಿಯ", "ುವ</w>"], ["ಿಯ", "ಿಂದ"], ["ಿಯಿಂದ", ",</w>"], ["ಿಯ", "ಷ್ಟ"], ["ಿಯಷ್ಟ", "ಿದೆ.</w>"], ["ಿಯ", "ವರ</w>"], ["ಿದ್ದ", "ು</w>"], ["ಿದ್ದ", "ರ"], ["ಿದ್ದರ", "ೆ,</w>"], ["ಿದ", "್ದ</w>"], ["ಿದ", "ೊಡ್ಡ</w>"], ["ಿತ್ರ", "ೆ</w>"], ["ಿತ್ರ", "ಗಳು</w>"], ["ಿತ", "್ವದಲ್ಲಿತ್ತು.</w>"], ["ಿತ", "್ಯ,</w>"], ["ಿತ", "ಿಯ</w>"], ["ಿತ", "ಾಂಶ</w>"], ["ಿಕ", "್ಕಿದ</w>"], ["ಿಕ", "ೊಂಡಿದೆ</w>"], ["ಿಕ", "ೆಗೆ</w>"], ["ಿಕ", "ವಾಗಿ</w>"], ["ಿಕ", "ನ್"], ["ಿಕನ್", "‌</w>"], ["ಿಕ", "ತ"], ["ಿಕತ", "ೆ</w>"], ["ಿಂದ", "ಲ"], ["ಿಂದಲ", "ೂ</w>"], ["ಿಂ", "ಭ"], ["ಿಂಭ", "ೇಟ್ಕಾದಲ್ಲಿ</w>"], ["ಿ", "ಹೋಗ"], ["ಿಹೋಗ", "ಿದ್ದ</w>"], ["ಿ", "ರಾ"], ["ಿರಾ", "</w>"], ["ಿ", "ರ"], ["ಿರ", "ವಾಗಿದೆ.</w>"], ["ಿ", "ಮಾ"], ["ಿಮಾ", "ಲ"], ["ಿಮಾಲ", "ಯ</w>"], ["ಿ", "ಮ"], ["ಿಮ", "ೆ</w>"], ["ಿ", "ನ್"], ["ಿನ್", "ನ</w>"], ["ಿ", "ಡ"], ["ಿಡ", "ುಗಡೆ</w>"], ["ಿ", "ಗಳು</w>"], ["ಿ", "ಗಳ"], ["ಿಗಳ", "ಷ್ಟ"], ["ಿಗಳಷ್ಟ", "ು.</w>"], ["ಿ", "ಅಂಶಗಳು</w>"], ["ಾರ್", "ಸಿ"], ["ಾರ್ಸಿ", ",</w>"], ["ಾರ್", "ಷ"], ["ಾರ್ಷ", "ಿಕವಾಗಿ</w>"], ["ಾರಿಕ", "ೆ,</w>"], ["ಾರಾ", "ಷ್ಟ್ರ"], ["ಾರಾಷ್ಟ್ರ", "ೀಯ</w>"], ["ಾರ", "್ಮಿಕ</w>"], ["ಾರ", "್</w>"], ["ಾರ", "ೀಕರಣ</w>"], ["ಾರ", "ದಲ್ಲಿ</w>"], ["ಾಪ", "ಿಸಿತು.</w>"], ["ಾನ", "್ಯದಲ್ಲಿ</w>"], ["ಾನ", "ರು,</w>"], ["ಾನ", ")</w>"], ["ಾಗರ", ",</w>"], ["ಾಗ", "ಿತು.</w>"], ["ಾಗ", "</w>"], ["ಾಂ", "ಧ"], ["ಾಂಧ", "ಿಯವರ</w>"], ["ಾಂ", "</w>"], ["ಾ", "ಹ"], ["ಾಹ", "್ಯ</w>"], ["ಾ", "ಸ್ತ"], ["ಾಸ್ತ", "್ರ</w>"], ["ಾ", "ವೇ"], ["ಾವೇ", "ರಿ"], ["ಾವೇರಿ", ".</w>"], ["ಾ", "ಳ</w>"], ["ಾ", "ನೇ"], ["ಾನೇ", "ಟ"], ["ಾನೇಟ", "್,</w>"], ["ಾ", "ದ</w>"], ["ಾ", "ಜ"], ["ಾಜ", "ು)</w>"], ["ಾ", "\"</w>"], ["ಹ್ಮ", "ದ"], ["ಹ್ಮದ", "ಿ</w>"], ["ಹೋಲ", "ಿಸಿದರೆ</w>"], ["ಹೋಗ", "ುತ್ತಿರುವ</w>"], ["ಹೋಗ", "ಿದ್ದಾರೆ.</w>"], ["ಹೋ", "ರಾ"], ["ಹೋರಾ", "ಟದ</w>"], ["ಹೋ", "ದ"], ["ಹೋದ", "ವರ</w>"], ["ಹೊಂದ", "ಿರುವವರನ್ನು</w>"], ["ಹೊಂದ", "ಿರುವ</w>"], ["ಹೊಂದ", "ಿದ್ದು</w>"], ["ಹೊಂದ", "ಿದ್ದು,</w>"], ["ಹೊಂದ", "ಿದ</w>"], ["ಹೆಸರಿ", "ನ</w>"], ["ಹೆಸ", "ರು"], ["ಹೆಸರು", "ಗಳಲ್ಲಿ</w>"], ["ಹೆಚ್ಚ", "ುತ್ತಾ</w>"], ["ಹೆಚ್ಚ", "ಾಗಿ</w>"], ["ಹೆಚ್ಚ", "ಳ"], ["ಹೆಚ್ಚಳ", "ವಾಗಿದೆ.</w>"], ["ಹೆ", "ಗ್"], ["ಹೆಗ್", "ಗಳ"], ["ಹೆಗ್ಗಳ", "ಿಕೆಗೆ</w>"], ["ಹೀ", "ಗೆ</w>"], ["ಹೀ", "ಗ"], ["ಹೀಗ", "ಿದೆ:</w>"], ["ಹಿಂದ", "ೆ</w>"], ["ಹಿಂದ", "ೂಸ್ಥಾನ</w>"], ["ಹಿಂದ", "ೂ,</w>"], ["ಹಿಂದ", "ಿಕ್ಕಿದ</w>"], ["ಹಾ", "-"], ["ಹಾ-", "ಈ"], ["ಹಾ-ಈ", ".</w>"], ["ಹರ", "ಿಯುವ</w>"], ["ಹರ", "ಣ"], ["ಹರಣ", "ೆಗೆ</w>"], ["ಹಂಚ", "ಿಹೋಗಿದ್ದ</w>"], ["ಹಂಚ", "ಿಕೊಂಡಿದೆ</w>"], ["ಹ", "ೊರ</w>"], ["ಹ", "ೂದಿ,</w>"], ["ಹ", "ಿಸುತ್ತವೆ.</w>"], ["ಹ", "ಿಮಾಲಯ</w>"], ["ಹ", "ಿತ್ಯ,</w>"], ["ಹ", "ಮನ"], ["ಹಮನ", "ಿ</w>"], ["ಹ", "ನ್ನ"], ["ಹನ್ನ", "ೆರಡನೆಯ</w>"], ["ಹ", "ತ್ತ"], ["ಹತ್ತ", "ಿರವಾಗಿದೆ.</w>"], ["ಹ", "</w>"], ["ಸ್ವಾತಂತ್ರ", "್ಯಾ</w>"], ["ಸ್ವತಂತ್ರ", "ವಾ"], ["ಸ್ವತಂತ್ರವಾ", "ಯ"], ["ಸ್ವತಂತ್ರವಾಯ", "ಿತು.</w>"], ["ಸ್ವತಂತ್ರ", "</w>"], ["ಸ್ವ", "ಲ್"], ["ಸ್ವಲ್", "ಪ</w>"], ["ಸ್ವ", "ದೇಶ"], ["ಸ್ವದೇಶ", "ದಿಂದ</w>"], ["ಸ್ಥಾನ", "ದಲ್ಲ"], ["ಸ್ಥಾನದಲ್ಲ", "ಿದೆ.</w>"], ["ಸ್ಥ", "ಾಪಿಸಿತು.</w>"], ["ಸ್ತ", "ಿತ್ವದಲ್ಲಿತ್ತು.</w>"], ["ಸ್ತ", "ವ್ಯ"], ["ಸ್ತವ್ಯ", "ವನ್ನು</w>"], ["ಸ್ತ", "ಭೂಮಿ</w>"], ["ಸ್", "ಲ"], ["ಸ್ಲ", "ಾಂ</w>"], ["ಸ್", "ಕ"], ["ಸ್ಕ", "ೃತಿಯನ್ನು</w>"], ["ಸ್", "\"</w>"], ["ಸುಲ್ತ", "ಾನೇಟ್,</w>"], ["ಸುಲ್ತ", "ಾನರು,</w>"], ["ಸುಮಾರ", "ಾಗಿ</w>"], ["ಸು", "ವರ್"], ["ಸುವರ್", "ಣ</w>"], ["ಸು", "ವ</w>"], ["ಸು", "ತ್ತ"], ["ಸುತ್ತ", "ುವರಿದಿದ್ದು,</w>"], ["ಸಿರಿವ", "ಂತ</w>"], ["ಸಿಂಧ", "ೂತಟದ</w>"], ["ಸಿಂಧ", "ೂ,</w>"], ["ಸಿ", "ಗಳು</w>"], ["ಸಾವಿರ", ".</w>"], ["ಸಾವಿರ", ",</w>"], ["ಸಾರ", "ಾಂಶ</w>"], ["ಸಾಮ್ರಾಜ್ಯ", "ಗಳು</w>"], ["ಸಾಮ್ರಾಜ್ಯ", ".</w>"], ["ಸಾಮ್ರಾಜ್ಯ", ").</w>"], ["ಸಾಮ", "ರ್ಥ"], ["ಸಾಮರ್ಥ", "್ಯವನ್ನು</w>"], ["ಸಾ", "ಹಿತ್ಯ,</w>"], ["ಸಾ", "ಲ"], ["ಸಾಲ", "ಿನ</w>"], ["ಸಾ", "ಧ"], ["ಸಾಧ", "ಿಸಿತು.</w>"], ["ಸಾ", "ಕ್ಷ"], ["ಸಾಕ್ಷ", "ರತ"], ["ಸಾಕ್ಷರತ", "ಾ</w>"], ["ಸಹಸ", "್ರಮಾನದ</w>"], ["ಸಹಸ", "್ರ</w>"], ["ಸಹ", "</w>"], ["ಸಭ", "ೆ</w>"], ["ಸಂಸ್ಥ", "ೆಗಳೆಂದರೆ</w>"], ["ಸಂಸ್ಥ", "ೆಗಳು</w>"], ["ಸಂಸ್ಥ", "ೆ,</w>"], ["ಸಂಸ್ಥ", "ಾನ,</w>"], ["ಸಂಪರ್", "ಕ</w>"], ["ಸಂಪರ್", "ಕ"], ["ಸಂಪರ್ಕ", "ಗಳು</w>"], ["ಸಂಪ", "ತ್ತ"], ["ಸಂಪತ್ತ", "ಿನ</w>"], ["ಸಂಖ್ಯ", "ೆ</w>"], ["ಸಂ", "ಸ್ಕೃತಿಯನ್ನು</w>"], ["ಸಂ", "ಶ"], ["ಸಂಶ", "ೋಧನಾ</w>"], ["ಸಂ", "ಯು"], ["ಸಂಯು", "ಕ್ತ"], ["ಸಂಯುಕ್ತ", "</w>"], ["ಸಂ", "ಪೂರ್"], ["ಸಂಪೂರ್", "ಣ</w>"], ["ಸಂ", "ಗ್ರಾ"], ["ಸಂಗ್ರಾ", "ಮದಲ್ಲಿ</w>"], ["ಸ", "ೈನ್ಯ</w>"], ["ಸ", "ೂಚಿತವಾಗಿದೆ.</w>"], ["ಸ", "ು.</w>"], ["ಸ", "ಿತು.</w>"], ["ಸ", "ಾಗಿತು.</w>"], ["ಸ", "ಾಗರ,</w>"], ["ಸ", "ರ್"], ["ಸರ್", "ಕ"], ["ಸರ್ಕ", "ಾರದಲ್ಲಿ</w>"], ["ಸ", "ರಾ"], ["ಸರಾ", "ಸರಿ</w>"], ["ಸ", "ಮು"], ["ಸಮು", "ದ"], ["ಸಮುದ", "್ರಗಳಿಂದ</w>"], ["ಸ", "ಮಾ"], ["ಸಮಾ", "ಜ"], ["ಸಮಾಜ", "ದಲ್ಲಿ</w>"], ["ಸ", "ಮ"], ["ಸಮ", "ತ"], ["ಸಮತ", "ಟ್ಟು</w>"], ["ಸ", "ತಿಯ</w>"], ["ಸ", "ಂದ"], ["ಸಂದ", "ರ್"], ["ಸಂದರ್", "ಭ"], ["ಸಂದರ್ಭ", "ದಲ್ಲಿ</w>"], ["ಷ್ಯಾ", "ದ</w>"], ["ಷ್ಯಾ", ",</w>"], ["ಷ್ಟ", "ು</w>"], ["ಷ", "ಿಯನ್</w>"], ["ಶ್ರೀ", "ಲ"], ["ಶ್ರೀಲ", "ಂ"], ["ಶ್ರೀಲಂ", "ಕ"], ["ಶ್ರೀಲಂಕ", "ಾ,</w>"], ["ಶ್ರ", "ೇಣಿ</w>"], ["ಶ್ಚ", "ಿಯನ್</w>"], ["ಶತಮಾನ", "ದ</w>"], ["ಶ", "ೇ</w>"], ["ಶ", "ೇ.</w>"], ["ಶ", "ಿಲಾಯುಗದ</w>"], ["ಶ", "ಾಸ್ತ್ರ</w>"], ["ಶ", "ಾನ್ಯದಲ್ಲಿ</w>"], ["ಶ", "ಪಡ"], ["ಶಪಡ", "ಿಸಿಕೊಳ್ಳಲಾರಂಭಿಸಿದರು.</w>"], ["ಶ", "ಕ"], ["ಶಕ", "ದಿಂದ</w>"], ["ವ್ಯಾಪಾರ", "ಿಗಳು</w>"], ["ವ್ಯಾಪಾರ", "</w>"], ["ವ್ಯವಸ್ಥ", "ೆ</w>"], ["ವ್ಯ", "ಕ್ತಿಯ</w>"], ["ವೇ", "ಬ"], ["ವೇಬ", "್ಯಾಕ್</w>"], ["ವೇ", "ದ"], ["ವೇದ", "ಗಳನ್ನು</w>"], ["ವೇ", "ಗ"], ["ವೇಗ", "ವಾಗಿ</w>"], ["ವಿಶ್ವ", "ದಾ"], ["ವಿಶ್ವದಾ", "ದ"], ["ವಿಶ್ವದಾದ", "್ಯಂತ</w>"], ["ವಿಶ್ವ", "ದ</w>"], ["ವಿರು", "ದ್ಧ"], ["ವಿರುದ್ಧ", "</w>"], ["ವಿಭಜಿತ", ")</w>"], ["ವಿಭ", "ಿನ್ನ</w>"], ["ವಿಭ", "ಜನ"], ["ವಿಭಜನ", "ೆ</w>"], ["ವಿಧ", "</w>"], ["ವಿಂಗಡ", "ಿಸಲಾಗಿದೆ:</w>"], ["ವಿಂಗಡ", "ಣ"], ["ವಿಂಗಡಣ", "ೆ</w>"], ["ವಿ", "ವಿಧ</w>"], ["ವಿ", "ವರ</w>"], ["ವಿ", "ಜ್ಞ"], ["ವಿಜ್ಞ", "ಾನ,</w>"], ["ವಾಗ", "ಿವೆ.</w>"], ["ವಾಗ", "ಿದ್ದು,</w>"], ["ವಾಗ", "ಿದ್ದರೆ,</w>"], ["ವಾ", "ಸ್ತವ್ಯವನ್ನು</w>"], ["ವಾ", "ಸಿಗಳು</w>"], ["ವರ್ಷ", "ಗಳ</w>"], ["ವರ್ಷ", "\"</w>"], ["ವರ್", "ಗ</w>"], ["ವರ್", "ಗ"], ["ವರ್ಗ", "ಗಳಲ್ಲಿ</w>"], ["ವರ", "್ತಿಯಿಂದ</w>"], ["ವರ", "ೆಗಿನ</w>"], ["ವ", "ೈವಿಧ್ಯಮಯವಾಗಿಸಿವೆ.</w>"], ["ವ", "ೃಷಭದೇವನ</w>"], ["ವ", "ೃತ್ತಿಗಳಲ್ಲಿ</w>"], ["ವ", "ೂ</w>"], ["ವ", "ು:</w>"], ["ವ", "ಾರ್ಷಿಕವಾಗಿ</w>"], ["ವ", "ಹಿಸುತ್ತವೆ.</w>"], ["ವ", "ಸತಿಯ</w>"], ["ವ", "ಶಪಡಿಸಿಕೊಳ್ಳಲಾರಂಭಿಸಿದರು.</w>"], ["ವ", "ಲ</w>"], ["ವ", "ರಿ"], ["ವರಿ", ",</w>"], ["ವ", "ದಲ್ಲಿ</w>"], ["ವ", "ತ"], ["ವತ", "ಶ್ರೇಣಿ</w>"], ["ಳ", "ೆಯುಳಿಕೆಗಳು.</w>"], ["ಳ", "ುವಳಿ</w>"], ["ಳ", "ಪಟ್ಟ"], ["ಳಪಟ್ಟ", "ವು.</w>"], ["ಳ", "ಗಿನ</w>"], ["ಲ್ಲಿ", ".</w>"], ["ಲ್ಲ", "ೇಖಗಳು</w>"], ["ಲ್ಲ", "ರಿ"], ["ಲ್ಲರಿ", "ಗಿಂತ</w>"], ["ಲ್ಕ", "ತ್ತ</w>"], ["ಲ್", "ಪಡ"], ["ಲ್ಪಡ", "ುವ</w>"], ["ಲ್", "ಡ"], ["ಲ್ಡ", "ೀವ್ಸ್</w>"], ["ಲ್", "ಗೊಂಡವು.</w>"], ["ಲ್", "</w>"], ["ಲೋಕಸಭ", "ಾ</w>"], ["ಲಿಸ", "ುತ್ತಾ</w>"], ["ಲಿಸ", "ಿದ್ದಾರೆ.</w>"], ["ಲಿ", ",</w>"], ["ಲಾ", "ಭ"], ["ಲಾಭ", "</w>"], ["ಲಕ್ಷ", ")</w>"], ["ಲ", "ೆಯೆತ್ತಲಾರಂಭಿಸಿದವು.</w>"], ["ಲ", "ೆಂಡಿನ</w>"], ["ಲ", "ೆ</w>"], ["ಲ", "ಿತಾಂಶ</w>"], ["ಲ", "ಾಗಿದೆ.</w>"], ["ಲ", "ನ</w>"], ["ರ್", "ಮ"], ["ರ್ಮ", "ದಾ"], ["ರ್ಮದಾ", ",</w>"], ["ರ್", "ಪಟ್ಟ"], ["ರ್ಪಟ್ಟ", "ಿತ್ತು.</w>"], ["ರ್", "ದೇಶ"], ["ರ್ದೇಶ", "ಿಸಲು</w>"], ["ರೆ", "ಗ"], ["ರೆಗ", "ೆ,</w>"], ["ರೂಪಾ", "ಯ"], ["ರೂಪಾಯ", "ಿಗಳಷ್ಟು.</w>"], ["ರೂಪಾ", "ಂತ"], ["ರೂಪಾಂತ", "ರ</w>"], ["ರೂ.2", "9."], ["ರೂ.29.", "9</w>"], ["ರೂ.2", "1.3</w>"], ["ರೂ", "."], ["ರೂ.", "5"], ["ರೂ.5", "4."], ["ರೂ.54.", "6</w>"], ["ರು", "ಭೂಮಿ</w>"], ["ರು", "ತ್ತ"], ["ರುತ್ತ", "ಾರೆ.</w>"], ["ರಿ", "ನ</w>"], ["ರಾಷ್ಟ್ರ", "ವಾಗಿದೆ.</w>"], ["ರಾಷ್ಟ್ರ", "ಗಳ</w>"], ["ರಾಷ್ಟ್ರ", "ಗಳ"], ["ರಾಷ್ಟ್ರಗಳ", "ಿಗೆ</w>"], ["ರಾಷ್ಟ್ರ", ";"], ["ರಾಷ್ಟ್ರ;", "11</w>"], ["ರಾಜ್ಯ", "ಸಭೆ</w>"], ["ರಾಜ್ಯ", ",</w>"], ["ರಾಜ", "ರ</w>"], ["ರಾ", "ತ"], ["ರಾತ", "ನ</w>"], ["ರ", "ೋಪಿಯನ್</w>"], ["ರ", "ೆಗೆ</w>"], ["ರ", "ೀತಿ</w>"], ["ರ", "ಿಸಿ</w>"], ["ರ", "ಿತ್ರೆ</w>"], ["ರ", "ಿಕೆ</w>"], ["ರ", "ಿಕನ್‌</w>"], ["ರ", "ಷ್ಯಾ,</w>"], ["ರ", "ಷ್ಟು</w>"], ["ರ", "ಲಾರಂಭಿಸಿದರು.</w>"], ["ರ", "ರಾಷ್ಟ್ರೀಯ</w>"], ["ರ", "ಬ್ಬ"], ["ರಬ್ಬ", "ಿ</w>"], ["ರ", "ನ್ನು</w>"], ["ಯುಗ", "\""], ["ಯುಗ\"", "ದಲ್ಲಿ</w>"], ["ಯು", "ರೋಪಿಯನ್</w>"], ["ಯು", "ದ್ಧ"], ["ಯುದ್ಧ", "ಗಳು</w>"], ["ಯ", "ಿ,</w>"], ["ಯ", "ಾರಿಕೆ,</w>"], ["ಯ", "ಹೂದಿ,</w>"], ["ಯ", "ಮು"], ["ಯಮು", "ನಾ"], ["ಯಮುನಾ", ",</w>"], ["ಯ", "ದಲ್ಲಿ</w>"], ["ಮೊ", "ತ್ತ</w>"], ["ಮೊ", "ಘ"], ["ಮೊಘ", "ಲ್</w>"], ["ಮೇ", "ಲೆ</w>"], ["ಮೇ", "ರೆಗೆ</w>"], ["ಮೇ", "ರೆಗೆ,</w>"], ["ಮೂರ", "ನೆ</w>"], ["ಮುಖ್ಯವಾ", "ದ</w>"], ["ಮುಖ್ಯವಾ", "ದ"], ["ಮುಖ್ಯವಾದ", "ವು:</w>"], ["ಮುಂಬ", "ೈನ</w>"], ["ಮುಂಬ", "ೈ</w>"], ["ಮುಂಬ", "ಯಿ,</w>"], ["ಮು", "ನ್ನ"], ["ಮುನ್ನ", "ಡ"], ["ಮುನ್ನಡ", "ೆಯನ್ನು</w>"], ["ಮಿಲಿಯ", "ನ್.</w>"], ["ಮಿಲಿಯ", "ನೇರ್"], ["ಮಿಲಿಯನೇರ್", "</w>"], ["ಮಾರ", "್ಗಗಳು</w>"], ["ಮಾರ", "್</w>"], ["ಮಾರ", "ುಕಟ್ಟೆ</w>"], ["ಮಾ", "ಲ್ಡೀವ್ಸ್</w>"], ["ಮಾ", "ಣ</w>"], ["ಮಾ", "ಡ"], ["ಮಾಡ", "ಿರುವ</w>"], ["ಮಹಾರಾಜ", "ನ</w>"], ["ಮಹಾರಾಜ", "</w>"], ["ಮಹ", "ಾ</w>"], ["ಮಯ", "ನ್"], ["ಮಯನ್", "ಮಾರ್</w>"], ["ಮನ", "ೆಯಾಗಿದೆ.</w>"], ["ಮಧ", "್ಯಮ</w>"], ["ಮಧ", "್ಯದಲ್ಲಿ</w>"], ["ಮಧ", "್ಯ</w>"], ["ಮ", "್ಮ</w>"], ["ಮ", "ೌರ್ಯ</w>"], ["ಮ", "ೆಷಿನ್</w>"], ["ಮ", "ರುಭೂಮಿ</w>"], ["ಮ", "ಗ</w>"], ["ಮ", "ಂತ್ರ"], ["ಮಂತ್ರ", "ಿ</w>"], ["ಮ", "ಂಡ"], ["ಮಂಡ", "ಲ</w>"], ["ಭೂ", "ತ"], ["ಭೂತ", "ಾನ,</w>"], ["ಭೂ", "ಗೋ"], ["ಭೂಗೋ", "ಳ</w>"], ["ಭಾಷ", "ೆ,</w>"], ["ಭಾರತ", "ವೂ</w>"], ["ಭಾರತ", "ವು</w>"], ["ಭಾರತ", "ದಿಂದ</w>"], ["ಭಾರತ", "ದ"], ["ಭಾರತದ", "ೊಂದಿಗೆ</w>"], ["ಭಾರ", "ಿ</w>"], ["ಭಾಗ", "ಗಳಲ್ಲಿ</w>"], ["ಭಾಗ", "ಗಳ"], ["ಭಾಗಗಳ", "ಾಗಿ</w>"], ["ಭರತ", "ವರ್ಷ\"</w>"], ["ಭ", "ೌಗೋಳಿಕ</w>"], ["ಭ", "ುತ್ವವಿರುವ</w>"], ["ಬ್ರಿಟೀಷ", "್</w>"], ["ಬ್ರಿಟೀಷ", "ರಿಂದ</w>"], ["ಬ್ರಿಟಿಷ", "ರ</w>"], ["ಬ್ಬ", "</w>"], ["ಬೌದ್ಧ", ",</w>"], ["ಬೆಳ", "ೆಯುತ್ತಿರುವ</w>"], ["ಬೆಳ", "ೆಯಿತು.</w>"], ["ಬೆಂಗಳೂ", "ರು</w>"], ["ಬೆಂಗಳೂ", "ರು,</w>"], ["ಬೆಂಗಳೂ", "ರಿನ</w>"], ["ಬಳಗ", "ಗಳೆಂದರೆ</w>"], ["ಬಳಗ", ".</w>"], ["ಬಳ", "ಗ</w>"], ["ಬಂದ", "ು</w>"], ["ಬ", "್ರಹ್ಮಪುತ್ರ,</w>"], ["ಬ", "ೇರೆ</w>"], ["ಬ", "ಿಲಿಯನೇರ್‌</w>"], ["ಬ", "ಿಡುಗಡೆ</w>"], ["ಬ", "ಿಂಭೇಟ್ಕಾದಲ್ಲಿ</w>"], ["ಬ", "ಾಹ್ಯ</w>"], ["ಬ", "ಹಾ-ಈ.</w>"], ["ಬ", "ಹಮನಿ</w>"], ["ಬ", "ಲವಾಗಿ</w>"], ["ಬ", "ರುತ್ತಾರೆ.</w>"], ["ಬ", "ರಲಾರಂಭಿಸಿದರು.</w>"], ["ಬ", "ದ"], ["ಬದ", "ಲಿಸಿದ್ದಾರೆ.</w>"], ["ಬ", "ಟ್ಟ"], ["ಬಟ್ಟ", "ೆಗಳ</w>"], ["ಬ", "ಂಗ"], ["ಬಂಗ", "ಾಳ</w>"], ["ಫ", "್ರೆಂಚ್</w>"], ["ಫ", "್ರಾನ್ಸ್</w>"], ["ಫ", "ಲಿತಾಂಶ</w>"], ["ಫ", "ಲವಾಗಿ</w>"], ["ಪ್ರದೇಶ", "ದ</w>"], ["ಪ್ರದೇಶ", "ಗಳನ್ನು</w>"], ["ಪ್ರ", "ಸ್ತಭೂಮಿ</w>"], ["ಪ್ರ", "ವಾಸಿಗಳು</w>"], ["ಪ್ರ", "ಮಾಣ</w>"], ["ಪ್ರ", "ಭುತ್ವವಿರುವ</w>"], ["ಪ್ರ", "ಬಲವಾಗಿ</w>"], ["ಪ್ರ", "ಥ"], ["ಪ್ರಥ", "ಮ</w>"], ["ಪ್ರ", "ಜಾ"], ["ಪ್ರಜಾ", "ಪ್ರಭುತ್ವವಿರುವ</w>"], ["ಪೂರ್", "ವದಲ್ಲಿ</w>"], ["ಪೂ", ".</w>"], ["ಪುತ್ರ", "ನಾ"], ["ಪುತ್ರನಾ", "ದ</w>"], ["ಪು", "ರಾತನ</w>"], ["ಪಾತ್ರ", "ವಾಗಿದ್ದರೆ,</w>"], ["ಪಾತ್ರ", "ಗಳನ್ನು</w>"], ["ಪಾಕಿಸ್ತ", "ಾನ,</w>"], ["ಪಾಕಿಸ್ತ", "ಾನ)</w>"], ["ಪಾಕ", "ೀಸ್ತಾನಗಳ</w>"], ["ಪಾ", "ಳ</w>"], ["ಪಾ", "ಲ್ಗೊಂಡವು.</w>"], ["ಪಾ", "ಲಿಸುತ್ತಾ</w>"], ["ಪಾ", "ನ್.</w>"], ["ಪಶ್ಚಿ", "ಮದಲ್ಲಿ</w>"], ["ಪರ್", "ಷಿಯನ್</w>"], ["ಪರ್", "ವತಶ್ರೇಣಿ</w>"], ["ಪರಿಸ್ಥ", "ಿತಿಯ</w>"], ["ಪರಿಸ್ಥ", "ಿತಿ</w>"], ["ಪರಿ", "ಗಣ"], ["ಪರಿಗಣ", "ಿಸಲಾಗಿದೆ.</w>"], ["ಪಡೆದ", "ು</w>"], ["ಪಡೆದ", "ಿದೆ.</w>"], ["ಪ", "್ಪಗಿನ</w>"], ["ಪ", "ೌರಾಣಿಕ</w>"], ["ಪ", "ೋರ್ಚುಗೀಸ್,</w>"], ["ಪ", "ೆಟ್ರೋಲಿಯಮ್</w>"], ["ಪ", "ಾರ್ಸಿ,</w>"], ["ಪ", "ಳೆಯುಳಿಕೆಗಳು.</w>"], ["ಪ", "ನ್ನ"], ["ಪನ್ನ", "ಗಳ"], ["ಪನ್ನಗಳ", "ು,</w>"], ["ನೇ", "ರ</w>"], ["ನೇ", "ಯದಲ್ಲಿ</w>"], ["ನೇ", "ಪಾಳ</w>"], ["ನಿ", "ರ್ದೇಶಿಸಲು</w>"], ["ನಾಲ್ಕ", "ನೇ</w>"], ["ನಾಗರೀಕತ", "ೆ</w>"], ["ನಾ", ","], ["ನಾ,", "ನೇಪಾಳ</w>"], ["ನದ", "ಿಯ</w>"], ["ನದ", "ಿಗಳಲ್ಲಿ</w>"], ["ನಡೆ", "ಸುವ</w>"], ["ನಡೆ", "ಸಿತು.</w>"], ["ನಡ", "ೆದಿವೆ.</w>"], ["ನಗರ", "ಗಳೆಂದರೆ</w>"], ["ನಗರ", "ಗಳ</w>"], ["ನಗ", "ರಿ</w>"], ["ನಂತ", "ಹ</w>"], ["ನ", "ೋಡಿ</w>"], ["ನ", "ೈಋತ್ಯದಲ್ಲಿ</w>"], ["ನ", "ೆರೆಯ</w>"], ["ನ", "ೀತಿಯನ್ನು</w>"], ["ನ", "ಿಸಿ</w>"], ["ನ", "ಿಯಿಂದ</w>"], ["ನ", "ಲ್ಲಿ.</w>"], ["ನ", "ರ್ಮದಾ,</w>"], ["ಧಿಪ", "ತ"], ["ಧಿಪತ", "್ಯ</w>"], ["ಧರ್ಮ", "ದ</w>"], ["ಧರ್ಮ", "ಗಳು</w>"], ["ಧರ್ಮ", "ಗಳ"], ["ಧರ್ಮಗಳ", "ಾದ</w>"], ["ಧರ್ಮ", ",</w>"], ["ಧ", "ಾರ್ಮಿಕ</w>"], ["ಧ", "ರಿಸಿ</w>"], ["ದೇಶಗಳ", "ೊಂದಿಗೆ</w>"], ["ದೇಶಗಳ", "ಿಗೆ</w>"], ["ದೇಶ", "ವು</w>"], ["ದೇಶ", "ವಾಗಿದ್ದು,</w>"], ["ದೇಶ", "ದಲ್ಲಿ</w>"], ["ದೇಶ", ".</w>"], ["ದೇಶ", "-"], ["ದೇಶ-", "ಸಂಸ್ಥೆಗಳೆಂದರೆ</w>"], ["ದೆಹ", "ಲಿ,</w>"], ["ದೃಷ್ಟ", "ಿಯಿಂದ</w>"], ["ದೃಷ್ಟ", "ಿಯಿಂದ,</w>"], ["ದಾ", "ಹರಣೆಗೆ</w>"], ["ದಾ", "ವರಿ,</w>"], ["ದಾ", "ಳಿ</w>"], ["ದಾ", "ಯ</w>"], ["ದಲ್ಲ", "ಿಯೇ</w>"], ["ದ", "್ವೀಪ</w>"], ["ದ", "್ರಾವಿಡ</w>"], ["ದ", "ೊರೆತಿರುವ</w>"], ["ದ", "ುಶ್ಯಂತನ</w>"], ["ದ", "ು</w>"], ["ದ", "ಾರೀಕರಣ</w>"], ["ದ", "ಶಕದಿಂದ</w>"], ["ದ", "ರೆ</w>"], ["ದ", "ಪ್ಪಗಿನ</w>"], ["ದ", "ಖ"], ["ದಖ", "ನ್</w>"], ["ಥ", "ಾರ್</w>"], ["ತ್ವ", "ಶಾಸ್ತ್ರ</w>"], ["ತಿಹಾಸ", "ಿಕ</w>"], ["ತಂತ್ರಜ್ಞ", "ಾನ</w>"], ["ತಂತ್ರಜ್ಞ", "ಾನ,</w>"], ["ತ", "ುರ್ತು</w>"], ["ತ", "ವರು</w>"], ["ತ", "ಲೆಯೆತ್ತಲಾರಂಭಿಸಿದವು.</w>"], ["ತ", "ಯಾರಿಕೆ,</w>"], ["ತ", "ಮ್ಮ</w>"], ["ತ", "ತ್ವಶಾಸ್ತ್ರ</w>"], ["ಣ", "ುಶಕ್ತಿ</w>"], ["ಣ", "ಿವೆ</w>"], ["ಣ", "ಗೊಂಡ"], ["ಣಗೊಂಡ", "ು</w>"], ["ಡಾಲರ್‌", "ವರೆಗೆ</w>"], ["ಡಾಲರ್‌", "ನಿಂದ</w>"], ["ಡಾಲರ್‌", "ಗಿಂತ</w>"], ["ಡ", "ಿಮೆ</w>"], ["ಟೆಲಿಗ್ರಾಂ", "</w>"], ["ಟೆಲಿಗ್ರಾಂ", "-"], ["ಟೆಲಿಗ್ರಾಂ-", "ಟೆಲಿಗ್ರಾಂ</w>"], ["ಝ", "ೊರಾಷ್ಟ್ರಿಯನಿಜ಼ಂ,</w>"], ["ಜಾ", "ತಿ</w>"], ["ಜನಗಣ", "ತಿಯ</w>"], ["ಜನಗಣ", "ತಿ</w>"], ["ಜನ", "ವಸತಿಯ</w>"], ["ಜನ", "ರನ್ನು</w>"], ["ಜ", "ಪಾನ್.</w>"], ["ಚುನಾವಣ", "ೆ,</w>"], ["ಚೀ", "ನಾ</w>"], ["ಚೀ", "ನಾ,ನೇಪಾಳ</w>"], ["ಚ", "ೆನೈ</w>"], ["ಚ", "ಿತ್ರಗಳು</w>"], ["ಚ", "ಳುವಳಿ</w>"], ["ಚ", "ಲನ</w>"], ["ಚ", "ರಿತ್ರೆ</w>"], ["ಚ", "ಕ್ರ"], ["ಚಕ್ರ", "ವರ್ತಿಯಿಂದ</w>"], ["ಗ್", "ಲೆಂಡಿನ</w>"], ["ಗ್", "ನೇಯದಲ್ಲಿ</w>"], ["ಗ್", "ಗ"], ["ಗ್ಗ", "ೂಡಿಸಿದ</w>"], ["ಗೋ", "ದಾವರಿ,</w>"], ["ಗೊಂಡ", "ಾಗ</w>"], ["ಗೊಂಡ", "ದ್ದು.</w>"], ["ಗಳ", "ೊಂದಿಗೆ</w>"], ["ಗಳ", "ಿಂದಲೂ</w>"], ["ಗಮ", "ಿಸಿ</w>"], ["ಗಮ", "ನಿಸಿ</w>"], ["ಗಣ", "ರಾಜ್ಯದ</w>"], ["ಗಣ", "ರಾಜ್ಯ,</w>"], ["ಗಣ", "ತಿ</w>"], ["ಗಡ", "ಿಯನ್ನು</w>"], ["ಗ", "ೂ</w>"], ["ಗ", "ುಪ್ತ</w>"], ["ಗ", "ಾಂಧಿಯವರ</w>"], ["ಗ", "ಮ</w>"], ["ಗ", "ಂಗ"], ["ಗಂಗ", "ಾ,</w>"], ["ಖ", "ಂಡ"], ["ಖಂಡ", "ದ</w>"], ["ಕ್ಷ", "ೇತ್ರಗಳಲ್ಲಿ</w>"], ["ಕ್ಷ", "ರ</w>"], ["ಕ್ರಿ.", "ಶ</w>"], ["ಕ್ರಿ.", "ಪೂ.</w>"], ["ಕ್ರಿ", "ಶ್ಚಿಯನ್</w>"], ["ಕ್ರಮ", "ವಾಗಿ</w>"], ["ಕ್ರಮ", "ಣಗೊಂಡು</w>"], ["ಕ್ರ", "ೈಸ್ತ</w>"], ["ಕ್ಕ", "ೊಳಪಟ್ಟಿತು.</w>"], ["ಕ್ಕ", "ೂಟ,</w>"], ["ಕೋಟ್ಯಧಿಪ", "ತಿಗಳು</w>"], ["ಕೋಟ್ಯಧಿಪ", "ತಿ</w>"], ["ಕೋಟಿ", "ಗೂ</w>"], ["ಕೋಟಿ", ".</w>"], ["ಕೋಟಿ", ").</w>"], ["ಕೋಟ", "್ಯಾಧಿಪತಿಗಳು</w>"], ["ಕೋಟ", "ಿಯಿಂದ</w>"], ["ಕೋಟ", "ಿಯಷ್ಟಿದೆ.</w>"], ["ಕೋ", "ಲ್ಕತ್ತ</w>"], ["ಕೇಂದ", "್ರ</w>"], ["ಕೇ", "ವಲ</w>"], ["ಕೆ", "ಳಗಿನ</w>"], ["ಕೆ", "ಲ</w>"], ["ಕೃಷ", "್ಣಾ,</w>"], ["ಕೃಷ", "ಿ,</w>"], ["ಕುರುಹು", "ಗಳೆಂದರೆ</w>"], ["ಕುರುಹು", "ಗಳು</w>"], ["ಕಾಲ", "ದಲ್ಲಿಯೇ</w>"], ["ಕಾಲ", "ದಲ್ಲಿ</w>"], ["ಕರೆಯ", "ಲ್ಪಡುವ</w>"], ["ಕರೆಯ", "ಲಾಗಿದೆ.</w>"], ["ಕರ", "ಗಳಿಂದಲೂ</w>"], ["ಕಂಪ", "ೆನಿ</w>"], ["ಕಂಪ", "ನಿಯಿಂದ</w>"], ["ಕ", "ೊಲ್ಲಿ,ದಕ್ಷಿಣದಲ್ಲಿ</w>"], ["ಕ", "ೈಗಾರಿಕೆ.</w>"], ["ಕ", "ೂಡ</w>"], ["ಕ", "ುಶಲ</w>"], ["ಕ", "ಾವೇರಿ.</w>"], ["ಕ", "ಣಿವೆ</w>"], ["ಕ", "ಡಿಮೆ</w>"], ["ಕ", "ಂಡ"], ["ಕಂಡ", "ು</w>"], ["ಒ", "ಳಪಟ್ಟವು.</w>"], ["ಒ", "ಬ್ಬ</w>"], ["ಒ", "ಗ್ಗೂಡಿಸಿದ</w>"], ["ಒ", "ಕ್ಕೂಟ,</w>"], ["ಒ", "ಂದು</w>"], ["ಒ", "ಂದ"], ["ಒಂದ", "ು.</w>"], ["ಐ", "ದು</w>"], ["ಐ", "ತಿಹಾಸಿಕ</w>"], ["ಏ", "ಷ್ಯಾದ</w>"], ["ಏ", "ರ್ಪಟ್ಟಿತ್ತು.</w>"], ["ಏ", "ರಿಕೆ</w>"], ["ಎರಡ", "ು</w>"], ["ಎರಡ", "ನೇ</w>"], ["ಎರಡ", "ನೆಯ</w>"], ["ಎರಡ", "ನೆ</w>"], ["ಎಂಬ", "ುದರಿಂದ</w>"], ["ಎ", "ಲ್ಲರಿಗಿಂತ</w>"], ["ಉಪಯೋಗ", "ಿಸುವ</w>"], ["ಉಪಯೋಗ", "ಿಸಲಾಗಿರುವ</w>"], ["ಉಪ", "ಖಂಡದ</w>"], ["ಉತ್ಪಾದ", "ನೆಯ</w>"], ["ಉತ್ಪಾದ", "ನಾ</w>"], ["ಉತ್ತ", "ರದ</w>"], ["ಉತ್", "ಪನ್ನಗಳು,</w>"], ["ಉಗಮ", "ಿಸಿವೆ.</w>"], ["ಉಗಮ", "ಗೊಂಡವು.</w>"], ["ಉಗಮ", "ಗೊಂಡದ್ದು.</w>"], ["ಉ", "ಲ್ಲೇಖಗಳು</w>"], ["ಉ", "ದಾಹರಣೆಗೆ</w>"], ["ಉ", "ದಾರೀಕರಣ</w>"], ["ಉ", "ಗಮ</w>"], ["ಈ", "ಶಾನ್ಯದಲ್ಲಿ</w>"], ["ಈ", "ಗ</w>"], ["ಇದ", "್ದವರನ್ನು</w>"], ["ಇದ", "ು</w>"], ["ಇದ", "ರ</w>"], ["ಇಂಡಿಯ", "ಾ\"</w>"], ["ಇಂಡ", "ೋ-ಆರ್ಯನ್</w>"], ["ಇಂಡ", "ಸ್\"</w>"], ["ಇ", "ಸ್ಲಾಂ</w>"], ["ಇ", "ವರು</w>"], ["ಇ", "ನ್ನು</w>"], ["ಇ", "ಂದ"], ["ಇಂದ", "ಿರಾ</w>"], ["ಇ", "ಂ"], ["ಇಂ", "ಗ್ಲೆಂಡಿನ</w>"], ["ಆರ್ಥ", "ಿಕತೆ</w>"], ["ಆರಂಭ", "ವಾಗಿವೆ.</w>"], ["ಆರಂಭ", "ದಲ್ಲಿ</w>"], ["ಆಡಳಿತ", "ಕ್ಕೊಳಪಟ್ಟಿತು.</w>"], ["ಆಡಳಿತ", "</w>"], ["ಆಗ", "ಿದೆ.</w>"], ["ಆಗ", "ಸ್ಟ್</w>"], ["ಆ", "ಧರಿಸಿ</w>"], ["ಆ", "ದಾಯ</w>"], ["ಆ", "ದರೆ</w>"], ["ಆ", "ಗ್ನೇಯದಲ್ಲಿ</w>"], ["ಆ", "ಗಮಿಸಿ</w>"], ["ಆ", "ಕ್ರಮಣಗೊಂಡು</w>"], ["ಆ", "ಕರಗಳಿಂದಲೂ</w>"], ["ಆ", "</w>"], ["ಅಮೆರಿಕ", "ದ</w>"], ["ಅಮ", "ರಿಕನ್‌</w>"], ["ಅಧಿಕೃತ", "ವಾಗಿ</w>"], ["ಅಧಿಕೃತ", "</w>"], ["ಅತ", "ಿದೊಡ್ಡ</w>"], ["ಅಂತ", "ಾರಾಷ್ಟ್ರೀಯ</w>"], ["ಅಂತ", "ರರಾಷ್ಟ್ರೀಯ</w>"], ["ಅಂಕ", "ಿಅಂಶಗಳು</w>"], ["ಅಂಕ", "ಿ</w>"], ["ಅ", "ಹ್ಮದಿ</w>"], ["ಅ", "ಸ್ತಿತ್ವದಲ್ಲಿತ್ತು.</w>"], ["ಅ", "ರಬ್ಬಿ</w>"], ["ಅ", "ಧಿಪತ್ಯ</w>"], ["ಅ", "ಣುಶಕ್ತಿ</w>"], ["ಅ", "ಕ್ಷರ</w>"], ["ಅ", "ಂದ"], ["ಅಂದ", "ಾಜು)</w>"], ["్‌", "స"], ["్‌స", "ొ"], ["్‌సొ", "ర్"], ["్‌సొర్", "సి"], ["్‌సొర్సి", "ంగ"], ["్‌సొర్సింగ", "్</w>"], ["్‌", "వే"], ["్‌వే", "ర్,</w>"], ["్‌", "మహ"], ["్‌మహ", "ల్</w>"], ["్‌", "బ"], ["్‌బ", "ాల"], ["్‌బాల", "్‌</w>"], ["్‌", "గ"], ["్‌గ", "ేజి</w>"], ["్‌", ",</w>"], ["్వ", "ాల్</w>"], ["్వ", "స్త"], ["్వస్త", "్ర</w>"], ["్వ", "బడిన</w>"], ["్వ", "నాథ"], ["్వనాథ", "న్</w>"], ["్వ", "త</w>"], ["్లో", "న"], ["్లోన", "ూ</w>"], ["్లో", "కాల"], ["్లోకాల", "తో</w>"], ["్ల", "ు</w>"], ["్ల", "లో</w>"], ["్రె", "డ"], ["్రెడ", "్,</w>"], ["్రి", "వర్ణ</w>"], ["్రి", "ద్ధి</w>"], ["్రి", "చె"], ["్రిచె", "ట్ట"], ["్రిచెట్ట", "ు.</w>"], ["్రాన్", "స్,</w>"], ["్రాన్", "-"], ["్రాన్-", "ఇ"], ["్రాన్-ఇ", "స్త"], ["్రాన్-ఇస్త", "ా"], ["్రాన్-ఇస్తా", "ంబ"], ["్రాన్-ఇస్తాంబ", "ుల"], ["్రాన్-ఇస్తాంబుల", "్</w>"], ["్రా", "మ"], ["్రామ", "ిక</w>"], ["్రా", "ఫ"], ["్రాఫ", "ిక్</w>"], ["్రా", "డ"], ["్రాడ", "్‌గేజి</w>"], ["్రా", ")</w>"], ["్ర", "ై"], ["్రై", "వర"], ["్రైవర", "ు</w>"], ["్ర", "ూ"], ["్రూ", "—ISBN</w>"], ["్ర", "ి</w>"], ["్ర", "ి,</w>"], ["్ర", "ాలు,</w>"], ["్ర", "హ్మ"], ["్రహ్మ", "ప"], ["్రహ్మప", "ుత"], ["్రహ్మపుత", "్ర"], ["్రహ్మపుత్ర", ",</w>"], ["్ర", "లో</w>"], ["్ర", "నాథ"], ["్రనాథ", "్</w>"], ["్ర", "ంగా</w>"], ["్యాల", "ున్నాయి.</w>"], ["్య", "ులు</w>"], ["్య", "ాలు</w>"], ["్య", "ానికి</w>"], ["్య", "ాత్మ"], ["్యాత్మ", "ిక"], ["్యాత్మిక", "త</w>"], ["్య", "ాడ"], ["్యాడ", "్మ"], ["్యాడ్మ", "ి"], ["్యాడ్మి", "ంట"], ["్యాడ్మింట", "న్"], ["్యాడ్మింటన్", "‌</w>"], ["్య", "ాటక</w>"], ["్య", "ా</w>"], ["్య", "మైన</w>"], ["్య", "ము</w>"], ["్య", "ప్రా"], ["్యప్రా", "ణ"], ["్యప్రాణ", "ుల</w>"], ["్య", "పరంగా</w>"], ["్య", "న్"], ["్యన్", ",</w>"], ["్య", "చిత్ర"], ["్యచిత్ర", "ాలు</w>"], ["్య", "ంలో</w>"], ["్య", ",</w>"], ["్ద", "ీ"], ["్దీ", "వులు,</w>"], ["్త", "ానులు,</w>"], ["్త", "దేశపు</w>"], ["్డ", "ే</w>"], ["్డ", "మ"], ["్డమ", "్</w>"], ["్ట", "్‌వేర్,</w>"], ["్చ", "ుకు"], ["్చుకు", "ంది.</w>"], ["్", "సై"], ["్సై", "ట్లు</w>"], ["్", "వా"], ["్వా", "మ"], ["్వామ", "ిత్ర"], ["్వామిత్ర", ",</w>"], ["్", "నాలు</w>"], ["్", "న"], ["్న", "ం</w>"], ["్", "ది</w>"], ["్", "ఞ"], ["్ఞ", "ాన</w>"], ["్", "జ"], ["్జ", "ెట్</w>"], ["్", "ఛ"], ["్ఛ", "ాయుత</w>"], ["్", "క"], ["్క", "ా</w>"], ["్", ";</w>"], ["ౌర", "విస్త"], ["ౌరవిస్త", "ారు.</w>"], ["ౌర", "</w>"], ["ౌ", "ళి,</w>"], ["ౌ", "ఖ"], ["ౌఖ", "ిక"], ["ౌఖిక", "మైనది.</w>"], ["ోర", "మ</w>"], ["ోర", "</w>"], ["ోధ", "ాల</w>"], ["ోధ", "న"], ["ోధన", "ా</w>"], ["ో-", "ఖ"], ["ో-ఖ", "ో,</w>"], ["ో-", "ఆ"], ["ో-ఆ", "ర"], ["ో-ఆర", "్యన్,</w>"], ["ో", "ష్ణ</w>"], ["ో", "ళ"], ["ోళ", "ులు,</w>"], ["ో", "బ"], ["ోబ", "ెల"], ["ోబెల", "్</w>"], ["ో", "న్న"], ["ోన్న", "త</w>"], ["ో", "నే"], ["ోనే", "సియా</w>"], ["ో", "ని</w>"], ["ో", "ద్య"], ["ోద్య", "మ"], ["ోద్యమ", "ంలో</w>"], ["ో", "ది.</w>"], ["ో", "త్"], ["ోత్", "తర"], ["ోత్తర", "ాలు</w>"], ["ో", "త"], ["ోత", "్రి,</w>"], ["ో", "క్ష"], ["ోక్ష", "</w>"], ["ో", "కు"], ["ోకు", "డు</w>"], ["ొంద", "ింది.</w>"], ["ొ", "ల"], ["ొల", "ీ,</w>"], ["ొ", "మ్మ"], ["ొమ్మ", ".</w>"], ["ొ", "డి"], ["ొడి", "గ"], ["ొడిగ", "ించ"], ["ొడిగించ", "ుకో"], ["ొడిగించుకో", "వచ్చని</w>"], ["ొ", "ట్ట"], ["ొట్ట", "ె"], ["ొట్టె", "ల</w>"], ["ైన", "ె"], ["ైనె", "ర్</w>"], ["ైన", "ప్పటికీ,</w>"], ["ైన", "ది.</w>"], ["ైన", "ంద"], ["ైనంద", "ిన</w>"], ["ై", "స్త"], ["ైస్త", "వ"], ["ైస్తవ", "ులు</w>"], ["ై", "లో</w>"], ["ై", "రెండ"], ["ైరెండ", "ుకో"], ["ైరెండుకో", "ట్లకు</w>"], ["ై", "టె"], ["ైటె", "డ"], ["ైటెడ", "్</w>"], ["ై", "క</w>"], ["ేయ", "ుల"], ["ేయుల", "ు"], ["ేయులు", ")</w>"], ["ేయ", "ం:</w>"], ["ేజ", "ీ</w>"], ["ే", "సింది.</w>"], ["ే", "ష్</w>"], ["ే", "ష"], ["ేష", "ం.</w>"], ["ే", "వ</w>"], ["ే", "ల"], ["ేల", "ిక"], ["ేలిక", "ే"], ["ేలికే", "న"], ["ేలికేన", "న"], ["ేలికేనన", "ీ</w>"], ["ే", "రి"], ["ేరి", ",</w>"], ["ే", "మాత"], ["ేమాత", "ర"], ["ేమాతర", "ం"], ["ేమాతరం", "..."], ["ేమాతరం...", ".</w>"], ["ే", "ధ"], ["ేధ", "ం,</w>"], ["ే", "తర</w>"], ["ే", "త</w>"], ["ే", "ట"], ["ేట", "ాయ"], ["ేటాయ", "ి"], ["ేటాయి", "డ"], ["ేటాయిడ", "్స్</w>"], ["ే", "కాగా</w>"], ["ే", "క"], ["ేక", "మైన</w>"], ["ే", ":</w>"], ["ే", "..."], ["ే...", ").</w>"], ["ే", "),</w>"], ["ెలు", "ప"], ["ెలుప", "ల"], ["ెలుపల", "ి</w>"], ["ెల", "ు.</w>"], ["ెండ", "ా</w>"], ["ె", "ల్ల"], ["ెల్ల", "ోని</w>"], ["ె", "లు</w>"], ["ె", "లిచ"], ["ెలిచ", "ిన</w>"], ["ె", "ర్"], ["ెర్", "టి"], ["ెర్టి", "యో"], ["ెర్టియో", "ర"], ["ెర్టియోర", "ారి</w>"], ["ె", "బ"], ["ెబ", "ియ"], ["ెబియ", "స్</w>"], ["ె", "న్న"], ["ెన్న", "ో</w>"], ["ె", "న్"], ["ెన్", "స"], ["ెన్స", "ీ</w>"], ["ె", "నే</w>"], ["ె", "ట"], ["ెట", "్కా</w>"], ["ె", "క్క"], ["ెక్క", "ను"], ["ెక్కను", "ంది.</w>"], ["ె", "</w>"], ["ె", ",</w>"], ["ృత", "్య</w>"], ["ృత", "ంగా</w>"], ["ృ", "హ"], ["ృహ", "ాలు,</w>"], ["ృ", "ష్ట"], ["ృష్ట", "్యా</w>"], ["ృ", "</w>"], ["ూప", "ింది.</w>"], ["ూప", "బడ"], ["ూపబడ", "ింది</w>"], ["ూప", "ం,</w>"], ["ూడ", "ి,</w>"], ["ూడ", "ా</w>"], ["ూచ", "ిప"], ["ూచిప", "ూడి,</w>"], ["ూ", "సింది.</w>"], ["ూ", "లా"], ["ూలా", "దాయంలో</w>"], ["ూ", "ర"], ["ూర", "త్</w>"], ["ూ", "నే</w>"], ["ూ", "ద"], ["ూద", "ులు,</w>"], ["ూ", "ట"], ["ూట", "నల"], ["ూటనల", "బ"], ["ూటనలబ", "ైరెండుకోట్లకు</w>"], ["ూ", ";</w>"], ["ూ", ",</w>"], ["ువ", "ుల"], ["ువుల", "ైనప్పటికీ,</w>"], ["ువ", "ు:</w>"], ["ువ", "ల్ల</w>"], ["ుల", "్స్</w>"], ["ుల", "్తానులు,</w>"], ["ుల", "ోయ</w>"], ["ుల", "ు:</w>"], ["ుల", "లో</w>"], ["ుల", "చే</w>"], ["ుర", "్యము</w>"], ["ుర", "ాలు.</w>"], ["ుప", "ుతూ</w>"], ["ుప", "వనాలు</w>"], ["ున్న", "ా,</w>"], ["ున్న", "వార"], ["ున్నవార", "్లలో</w>"], ["ున్న", "ప్పటికీ,</w>"], ["ుత", "ోంది.</w>"], ["ుత", "ున్నారు.</w>"], ["ుత", "ున్నవార్లలో</w>"], ["ుత", "ాయి.</w>"], ["ుట", "్‌బాల్‌</w>"], ["ుట", "చే</w>"], ["ుగ", "ుతాయి.</w>"], ["ుగ", "ల్"], ["ుగల్", ",</w>"], ["ుగ", "పు</w>"], ["ుగ", "ం</w>"], ["ుకోవడ", "ాన"], ["ుకోవడాన", "ిక"], ["ుకోవడానిక", "ి,</w>"], ["ుకోవడ", "ంతో</w>"], ["ుకొ", "న"], ["ుకొన", "బడిన</w>"], ["ుకున్న", "ారు.</w>"], ["ుకున్న", "ాయి.</w>"], ["ుకున్న", "ది.</w>"], ["ుకుంట", "ోంది.</w>"], ["ుంబ", "ి"], ["ుంబి", "ళ్"], ["ుంబిళ్", "ళ</w>"], ["ు", "ాల"], ["ుాల", "ోయ</w>"], ["ు", "స"], ["ుస", "గా</w>"], ["ు", "వై"], ["ువై", "పుల"], ["ువైపుల", "ా</w>"], ["ు", "వంటి</w>"], ["ు", "ళ"], ["ుళ", "ూరు</w>"], ["ు", "లో</w>"], ["ు", "రు"], ["ురు", "ష్"], ["ురుష్", "క"], ["ురుష్క", "ుల</w>"], ["ు", "మ</w>"], ["ు", "పూర్వ"], ["ుపూర్వ", "ోత్తరాలు</w>"], ["ు", "ను</w>"], ["ు", "ని"], ["ుని", "స్త"], ["ునిస్త", "ున్నారు.</w>"], ["ు", "న</w>"], ["ు", "న"], ["ున", "ిక</w>"], ["ు", "డైన</w>"], ["ు", "డు"], ["ుడు", "\".</w>"], ["ు", "ట్ట"], ["ుట్ట", "ూ</w>"], ["ు", "క్య"], ["ుక్య", "ులు,</w>"], ["ు", "క్</w>"], ["ు", "కు</w>"], ["ు", "ంద"], ["ుంద", "ని</w>"], ["ు", ","], ["ు,", "భాష"], ["ు,భాష", "లు,</w>"], ["ీర్", "జాలు</w>"], ["ీర్", "ఘ"], ["ీర్ఘ", "</w>"], ["ీర్", "</w>"], ["ీర", "ీ;</w>"], ["ీర", ",</w>"], ["ీయ", "ులు,</w>"], ["ీన", "ోద్యమంలో</w>"], ["ీన", "ికి</w>"], ["ీన", "ములో</w>"], ["ీన", "ంలో</w>"], ["ీన", "ం</w>"], ["ీత", "ులు</w>"], ["ీత", "ం:</w>"], ["ీ-", "దండ"], ["ీ-దండ", "ా"], ["ీ-దండా", ")</w>"], ["ీ", "విత"], ["ీవిత", "ంలో</w>"], ["ీ", "లు,</w>"], ["ీ", "రు</w>"], ["ీ", "పై</w>"], ["ీ", "తి,</w>"], ["ీ", "త</w>"], ["ీ", "కృ"], ["ీకృ", "త"], ["ీకృత", "మై</w>"], ["ీ", "కులు</w>"], ["ీ", "కరణ"], ["ీకరణ", "లో</w>"], ["ీ", "కర"], ["ీకర", "ణ</w>"], ["ీ", ".</w>"], ["ీ", ","], ["ీ,", "పాండ"], ["ీ,పాండ", "ి"], ["ీ,పాండి", "చ్చ"], ["ీ,పాండిచ్చ", "ేరి,</w>"], ["ిస్త", "ా"], ["ిస్తా", "మ"], ["ిస్తామ", "ని</w>"], ["ిస్", "లో</w>"], ["ిస్", "లే"], ["ిస్లే", "చ"], ["ిస్లేచ", "ర్,</w>"], ["ిస్", "ట"], ["ిస్ట", "ాట"], ["ిస్టాట", "స్"], ["ిస్టాటస్", ".</w>"], ["ిశ", "్రామిక</w>"], ["ిశ", "ాతం</w>"], ["ిల్ల", "ు.</w>"], ["ిల్ల", "ీ-దండా)</w>"], ["ిల్ల", "ిన</w>"], ["ిల్ల", "ా</w>"], ["ిర", "ా</w>"], ["ిర", "మైన</w>"], ["ియ", "ుగపు</w>"], ["ియ", "నులు,</w>"], ["ిప", "ిత</w>"], ["ిప", "త్య"], ["ిపత్య", "ం</w>"], ["ిన", "ేత</w>"], ["ిన", "ెస్</w>"], ["ిన", "హ"], ["ినహ", "ాయ"], ["ినహాయ", "ించి,</w>"], ["ిన", "వే.</w>"], ["ిన", "ంద"], ["ినంద", "ువల్ల</w>"], ["ిత", "్యం</w>"], ["ిత", "ే,</w>"], ["ిత", "ాబ"], ["ితాబ", "ునిస్తున్నారు.</w>"], ["ిత", "మై</w>"], ["ిత", "ంగా</w>"], ["ిత", "ం,</w>"], ["ిజ", "ినెస్</w>"], ["ిక", "ులు</w>"], ["ిక", "ుల</w>"], ["ిక", "ికి</w>"], ["ిక", "మైన</w>"], ["ించ", "ుకోవడానికి,</w>"], ["ించ", "ుకున్నారు.</w>"], ["ించ", "ి</w>"], ["ించ", "వచ్చు.</w>"], ["ి", "స్తాన్</w>"], ["ి", "ష్ట"]], "vocab": ["\"", "\")</w>", "\",</w>", "\".</w>", "\"</w>", "\"భరత", "$", "%", "%),</w>", "%).</w>", "%)</w>", "%,</w>", "%.</w>", "%</w>", "&", "'", "'</w>", "'s</w>", "(", "(\"", "(0.", "(17", "(196", "(2", "(3", "(7", "(Art", "(B", "(India", "(P", "(c.</w>", "(ii", "(including</w>", "(कुल</w>", "(०,", "(వెనుకటి</w>", "(೦.", "(Ἰνδ", ")", "),</w>", ").</w>", ");</w>", ")</w>", ")।</w>", "+", "+</w>", ",", ",\"</w>", ",000</w>", ",</w>", "-", "-0", "-</w>", "-body</w>", "-day</w>", "-largest</w>", "-majority</w>", "-s", ".", "..", "...", "./वर्ष</w>", ".2", ".</w>", ".పూ", ".೮", "/", "/</w>", "/वर्ष</w>", "0", "0,", "0,</w>", "0.", "00", "000", "000,000</w>", "0000", "000000</w>", "00000</w>", "000</w>", "00</w>", "00–", "04", "0</w>", "1", "1%.</w>", "1%</w>", "1,", "1,0", "1,000</w>", "1,200</w>", "1,93,", "1,</w>", "1-", "1.", "1.1</w>", "1.3</w>", "10", "10,", "100", "100,000</w>", "1000</w>", "100</w>", "10</w>", "10th</w>", "11</w>", "12", "1200</w>", "121,0", "121,01,93,", "12</w>", "13</w>", "13th</w>", "14%</w>", "14</w>", "15", "15</w>", "16", "16.", "16.6%</w>", "17", "17.", "17</w>", "17th</w>", "18", "185", "18th</w>", "19", "190", "1900</w>", "1901</w>", "192", "193", "1930", "194", "1947,</w>", "1947</w>", "195", "1950", "1950,</w>", "1950.</w>", "1950</w>", "1950s,</w>", "1951,</w>", "1951</w>", "1958</w>", "196", "1960", "1960</w>", "1962", "1962</w>", "1965,</w>", "1965</w>", "1967</w>", "197", "1971,</w>", "1971</w>", "1974</w>", "1975,</w>", "198", "1980</w>", "1984</w>", "199", "1990</w>", "1991", "1991,</w>", "1991</w>", "1998</w>", "1999.</w>", "1999</w>", "19th</w>", "1</w>", "1st</w>", "2", "2%.</w>", "2%</w>", "2,", "2,</w>", "2-", "2.", "2.8</w>", "20", "200", "2001,</w>", "2001</w>", "2003</w>", "2004</w>", "2007</w>", "2008,</w>", "2008</w>", "200</w>", "201", "2010", "2010.</w>", "2011", "2011,</w>", "2011</w>", "2012", "2012</w>", "2013</w>", "2014</w>", "2016", "2016ರಲ್ಲಿ</w>", "2018</w>", "2019", "2019</w>", "202", "2020", "2021</w>", "2022,</w>", "2022</w>", "2023.</w>", "2026,</w>", "20</w>", "20th</w>", "21.", "21</w>", "22</w>", "24", "25", "25</w>", "26", "26%</w>", "26</w>", "26న</w>", "28</w>", "29</w>", "2</w>", "3", "3%</w>", "3,", "3,</w>", "3.", "3.</w>", "30", "30,000</w>", "300</w>", "30</w>", "31.", "32</w>", "33", "35", "36", "361</w>", "39%</w>", "3</w>", "3th</w>", "4", "4%</w>", "4,", "4,</w>", "4.", "4.</w>", "40", "40%</w>", "400</w>", "40</w>", "42", "422</w>", "42</w>", "43", "46", "46%</w>", "4</w>", "5", "5%</w>", "5,", "5,</w>", "5-0", "5.", "5.</w>", "50", "500</w>", "50</w>", "55", "55,000</w>", "55.", "5;</w>", "5</w>", "6", "6%</w>", "6,</w>", "6.", "6.0", "6.6</w>", "6.</w>", "60", "600</w>", "62", "63</w>", "64%</w>", "64</w>", "6</w>", "6th</w>", "7", "7%</w>", "7,", "7,5", "7,517</w>", "7,</w>", "7.", "7.5%</w>", "7.</w>", "7/", "70", "7000</w>", "72.", "74.", "76</w>", "7</w>", "7th</w>", "7లో</w>", "8", "8%</w>", "8,", "8,</w>", "8.", "8.</w>", "80", "80</w>", "83", "83,", "8</w>", "8లో</w>", "8–2", "9", "9%.</w>", "9%</w>", "9,000</w>", "9,</w>", "9-", "9.", "9.</w>", "93,", "94</w>", "9</w>", ":", ":</w>", ";", ";</w>", "</w>", "=", "=</w>", "A", "A</w>", "Ac", "According</w>", "Achaemen", "Act,</w>", "Act</w>", "Af", "Africa</w>", "After</w>", "Agenc", "Ajant", "Ak", "Al", "All</w>", "Alliance</w>", "Although</w>", "Am", "Among</w>", "An", "An</w>", "Ancient</w>", "Andam", "Andaman</w>", "Ar", "Ara", "Arab", "Arabian</w>", "Archived</w>", "Art", "As</w>", "Ashoka</w>", "Asi", "Asia,</w>", "Asia.</w>", "Asia</w>", "Asian</w>", "Asians</w>", "Ass", "Assembly</w>", "At", "Au", "B", "BB", "BCE", "BCE,</w>", "BCE.</w>", "BCE</w>", "BJ", "BJP</w>", "Bah", "Bal", "Banglade", "Bangladesh</w>", "Bay</w>", "Beng", "Bengal", "Bengal</w>", "Between</w>", "Bh", "Bhang", "Bhar", "Bharat", "Bharat</w>", "Biodiversity</w>", "Brah", "Brahmaput", "Brit", "British", "British-", "British-style</w>", "British</w>", "Bud", "Buddh", "Buddha</w>", "Buddhism,</w>", "Buddhism</w>", "Buddhist", "Buddhist</w>", "By</w>", "C", "C</w>", "CE", "CE,</w>", "CE.</w>", "CE</w>", "CEE</w>", "CI", "Carnatic</w>", "Cav", "Cent", "Central</w>", "Ch", "Champ", "Chess</w>", "Chhau</w>", "Chief", "Chin", "China,</w>", "China</w>", "Chol", "Christianity,</w>", "Civil", "Cl", "Classical</w>", "Climate</w>", "Com", "Commonweal", "Comp", "Compan", "Company</w>", "Con", "Congres", "Congress", "Congress</w>", "Constituent</w>", "Constitution</w>", "Coun", "Country</w>", "Cricket</w>", "Culture</w>", "Cups,</w>", "D", "Dance</w>", "De", "Dec", "Deccan</w>", "Del", "Delhi,</w>", "Delhi</w>", "Dem", "Democratic</w>", "Demographics</w>", "Deser", "Desert,</w>", "Dev", "Dis", "Dravidian</w>", "During</w>", "E", "E</w>", "Early</w>", "East", "East</w>", "Eastern</w>", "Econ", "Economy</w>", "El", "Em", "Emergency,</w>", "Emp", "Empire", "Empire.</w>", "Empire</w>", "En", "Engl", "English</w>", "Etymology</w>", "Eur", "Euras", "Eurasi", "Europ", "Europe.</w>", "European</w>", "Ex", "F", "F)</w>", "Factbo", "Factbook</w>", "Following</w>", "For", "For</w>", "Foreign</w>", "Fron", "Front</w>", "G", "GD", "GDP,</w>", "GDP</w>", "Gand", "Gandh", "Gandhi</w>", "Ganges</w>", "General</w>", "Geograph", "Geography</w>", "Ghat", "Ghats,</w>", "Gondwana,</w>", "Govern", "Government</w>", "Gre", "Gree", "Greek</w>", "Guj", "Gujar", "Gujarat</w>", "Gup", "Gupta</w>", "H", "Health</w>", "Himalay", "Himalayan</w>", "Himalayas,</w>", "Himalayas.</w>", "Himalayas</w>", "Hindi", "Hindi</w>", "Hindu", "Hindu</w>", "Hinduism,</w>", "Hinduism</w>", "Hindust", "Hindustan</w>", "Hindustani</w>", "History</w>", "However,</w>", "I", "I,</w>", "II,</w>", "ISBN</w>", "Im", "In", "In</w>", "Inc", "Ind", "Indi", "India", "India's</w>", "India,</w>", "India.</w>", "India</w>", "Indian</w>", "Indians.</w>", "Indians</w>", "Indira</w>", "Indo", "Indo-", "Indo-Ar", "Indo-Aryan</w>", "Indo-Au", "Indo-Australian</w>", "Indo-European</w>", "Indo-G", "Indo-Gangetic</w>", "Indonesi", "Indonesia.</w>", "Indu", "Indus</w>", "International</w>", "Is", "Islam", "Islam,</w>", "Islamic</w>", "Islands,</w>", "It</w>", "Its</w>", "J", "Jain", "Jainism,</w>", "Jainism</w>", "Jammu</w>", "Jan", "Janata</w>", "January</w>", "Jawaharlal</w>", "Jharkh", "Ju", "June</w>", "K", "Kal", "Kash", "Kashm", "Kashmir", "Kashmir</w>", "Kaver", "Kerala</w>", "Kosi", "L", "Lakshadweep</w>", "Languages</w>", "Lank", "Lankan</w>", "Lat", "Li", "M", "Ma", "Mach", "Mah", "Major</w>", "Mal", "Malay", "Man", "Many</w>", "Mar", "Marath", "Maur", "Maurya</w>", "Middle</w>", "Min", "Mo", "Mod", "Modern</w>", "Modi</w>", "Mohenjo-daro,</w>", "Mugh", "Mughal</w>", "Mumbai,</w>", "Mus", "Muslim", "Muslim</w>", "Myanmar", "Myanmar,</w>", "N", "ND", "NDA</w>", "Na", "Nat", "National</w>", "Nehru", "Nehru</w>", "Nep", "Net", "New", "Nicob", "Nicobar</w>", "Non-", "Non-Proliferation</w>", "Nor", "North</w>", "Northeast</w>", "Nuclear</w>", "O", "Oct", "Old</w>", "Organization</w>", "Out", "P", "P,</w>", "P.</w>", "P</w>", "Pakist", "Pakistan", "Pakistan)</w>", "Pakistan,</w>", "Pakistan.</w>", "Pakistan</w>", "Pallav", "Part", "Persi", "Persian</w>", "Plain", "Plat", "Plate.</w>", "Platea", "Plateau,</w>", "Politics</w>", "Pr", "Presid", "Prof", "Proliferation</w>", "Punjab", "Punjab,</w>", "Punjab</w>", "R", "Raj", "Rajiv</w>", "Rajputs,</w>", "Ram", "Re", "Religion</w>", "Republic</w>", "S", "SB", "SBN", "SBN</w>", "SI", "Sabha,</w>", "Sang", "Sanskrit", "Sanskrit,</w>", "Sanskrit</w>", "Sant", "Sarna", "Sch", "Se", "Sea.</w>", "Sea</w>", "Several</w>", "Sh", "Sha", "Shastri</w>", "She</w>", "Shiva</w>", "Si", "Sik", "Sikh", "Sikh</w>", "Sikhs,</w>", "Simultaneously,</w>", "Sindh", "Sing", "Singh</w>", "Some</w>", "South", "South</w>", "Southeast</w>", "Soviet</w>", "Sri</w>", "St", "Stat", "States,</w>", "States</w>", "Sultanate</w>", "T", "Tam", "Tamil", "Tamil</w>", "Temple</w>", "Ter", "Th", "Thail", "Thar</w>", "The</w>", "Their</w>", "There</w>", "These</w>", "They</w>", "This</w>", "Tibet", "To</w>", "Treat", "Treaty,</w>", "U", "UP", "UPA</w>", "US", "US$", "US$100</w>", "US$2,", "Un", "Union.</w>", "Union</w>", "United</w>", "Unt", "Urdu", "V", "V.</w>", "Va", "Vajpaye", "Valley</w>", "Vedic</w>", "Vi", "Vijayanagara</w>", "Vis", "W", "WH", "WHO", "War</w>", "Wayback</w>", "West", "West</w>", "Western</w>", "Wh", "World</w>", "Y", "Yakshag", "Z", "Zoroastrianism</w>", "[", "]", "]</w>", "^", "a", "a's</w>", "a,</w>", "a.</w>", "a</w>", "ab", "abha,</w>", "ability</w>", "abl", "able</w>", "ables,</w>", "ably</w>", "about</w>", "above</w>", "ac", "acc", "access</w>", "according</w>", "accoun", "ach", "across</w>", "actbo", "action</w>", "ad", "ad,</w>", "ad</w>", "added</w>", "additional</w>", "ade</w>", "adem", "adher", "administ", "administration</w>", "adop", "adopted</w>", "adv", "advanced</w>", "advent</w>", "af", "affair", "affec", "affir", "after", "after</w>", "ag", "again</w>", "against</w>", "age.</w>", "age</w>", "ages</w>", "ago,</w>", "ago.</w>", "agre", "agricult", "agricultural</w>", "agriculture</w>", "ah", "ai", "ai,</w>", "ai</w>", "aic</w>", "ail", "ain", "ain</w>", "ained</w>", "ains</w>", "ainst</w>", "air</w>", "aj", "ajpaye", "ak", "akist", "aksh", "akshad", "akshadweep</w>", "akshag", "al", "al,</w>", "al.</w>", "al</w>", "ala,</w>", "ale</w>", "aled</w>", "ales</w>", "ali</w>", "alised</w>", "alit", "all", "all</w>", "allav", "alled</w>", "alley</w>", "alliance</w>", "alls</w>", "ally,</w>", "ally.</w>", "ally</w>", "along</w>", "als,</w>", "als.</w>", "als</w>", "also</w>", "am", "am,</w>", "am</w>", "ame</w>", "amendments</w>", "ament", "amm", "ammu</w>", "among</w>", "amp", "amphib", "ampl", "an", "an,</w>", "an-", "an.</w>", "an</w>", "ana</w>", "anag", "anat", "anc", "ance,</w>", "ance</w>", "anced</w>", "ances</w>", "anch", "ancient</w>", "and", "and,</w>", "and</w>", "ang", "anges</w>", "angetic</w>", "anglade", "anguag", "anguages</w>", "ani</w>", "animal", "animal</w>", "animals</w>", "ank", "ann", "annual</w>", "another</w>", "ans", "ans.</w>", "ans</w>", "anskrit", "ant", "ant</w>", "anted</w>", "antly</w>", "ants,</w>", "ants</w>", "any</w>", "ap", "app", "appear</w>", "applied</w>", "appoin", "approximately</w>", "ar", "ar,</w>", "ar</w>", "ara</w>", "aras", "arc", "arch", "archaic</w>", "architect", "architecture,</w>", "ards</w>", "are:</w>", "are</w>", "area", "area.</w>", "areas.</w>", "areas</w>", "ari", "aries</w>", "aris", "arly</w>", "arm", "armies</w>", "arms</w>", "arna", "arnat", "arnatic</w>", "around</w>", "art", "art,</w>", "art</w>", "artisans</w>", "artistic</w>", "arts,</w>", "ary</w>", "as", "as,</w>", "as.</w>", "as</w>", "ash", "asi</w>", "asive</w>", "ass", "assassinated</w>", "assert</w>", "assical</w>", "assinated</w>", "associ", "associate</w>", "associated</w>", "ast", "ast</w>", "at", "at,</w>", "at</w>", "ata</w>", "ate</w>", "ated</w>", "ately</w>", "ates</w>", "ath", "ati,</w>", "atic</w>", "ating</w>", "ation", "ation,</w>", "ation.</w>", "ation</w>", "ational</w>", "ations</w>", "ativ", "ative</w>", "atives</w>", "att", "attract", "aut", "av", "avar", "aver", "average</w>", "aw", "awa", "awaharlal</w>", "ay", "ay</w>", "ayback</w>", "aː", "a—", "b", "ba</w>", "bac", "back", "back</w>", "bal", "bal</w>", "ban", "band", "bandh", "bar", "bas", "based</w>", "be", "be</w>", "bec", "became</w>", "become</w>", "becoming</w>", "been</w>", "before</w>", "beg", "began</w>", "beginnings</w>", "being</w>", "bel", "belief", "bellion</w>", "belong</w>", "below</w>", "ber", "ber</w>", "bers</w>", "between</w>", "bi", "bill", "billion</w>", "biodiversity</w>", "biotech</w>", "bir", "birth", "birth</w>", "bit", "bl", "blackbuc", "ble</w>", "bo", "bod", "bodi", "body</w>", "bonds</w>", "bor", "borders</w>", "borne</w>", "both</w>", "bottom", "br", "break", "breath", "breathing</w>", "bri", "briefly</w>", "bro", "broad</w>", "bron", "brought</w>", "bu", "bulk</w>", "but</w>", "by</w>", "c", "c.</w>", "ca", "cal", "calend", "called</w>", "came</w>", "can", "can</w>", "cap", "capit", "capita</w>", "car", "carved</w>", "cast", "caste,</w>", "caste-", "caste</w>", "castes,</w>", "catt", "caus", "cause</w>", "caused</w>", "ce", "ce</w>", "ceed", "censu", "census,</w>", "census</w>", "cent", "centr", "central</w>", "centre</w>", "centur", "centuries,</w>", "centuries</w>", "century,</w>", "century.</w>", "century</w>", "cep", "cereal</w>", "ch", "ch</w>", "cha", "chaemen", "chang", "changes</w>", "chap", "char", "charac", "character", "characteristic</w>", "che", "child</w>", "chived</w>", "chosen</w>", "churidar", "churidars.</w>", "cient</w>", "cil</w>", "citi", "cities,</w>", "cities</w>", "citizen", "civil", "civil</w>", "civilian</w>", "cl", "clas", "class", "class.</w>", "classes</w>", "classical,</w>", "classical</w>", "cleared</w>", "climatic</w>", "close</w>", "cloth", "co", "co-", "coal", "coalit", "coalition,</w>", "coalition</w>", "coast", "coastal</w>", "coastline</w>", "col", "colleges</w>", "colonial</w>", "com", "comfortable</w>", "comm", "commerc", "commercial</w>", "common</w>", "commonly</w>", "comp", "compan", "company</w>", "compl", "complet", "complex</w>", "composed</w>", "comprising</w>", "compromise</w>", "con", "concep", "conduc", "conducted</w>", "consider", "consider</w>", "consist", "consists</w>", "consolid", "constitut", "constitution", "constitution</w>", "constitutional</w>", "consump", "cont", "contain</w>", "contains</w>", "contin", "continu", "continued</w>", "contra", "contribut", "contributed</w>", "contributions</w>", "control", "control</w>", "cook", "cooked</w>", "cooking</w>", "cor", "cording</w>", "cos", "cost</w>", "could</w>", "coun", "countr", "countri", "country's</w>", "country,</w>", "country</w>", "cour", "court", "court</w>", "courts,</w>", "courts.</w>", "cover", "cr", "cre", "created</w>", "creating</w>", "creativ", "creativity</w>", "cris", "crit", "cru", "cruc", "crucial</w>", "crust", "crust,</w>", "ct", "cu", "cuis", "cult", "cultural</w>", "culture.</w>", "culture</w>", "cultures</w>", "curr", "currenc", "cust", "cut</w>", "d", "d,</w>", "d-largest</w>", "d.</w>", "d</w>", "dam", "danc", "dance-dramas</w>", "dance</w>", "dances</w>", "dates</w>", "day</w>", "de", "de,</w>", "de</w>", "dec", "decad", "decade</w>", "decades</w>", "deciduous</w>", "declar", "declared</w>", "declin", "ded</w>", "defeated.</w>", "defin", "defined</w>", "definit", "del", "delegates</w>", "dem", "democracy.</w>", "democratic</w>", "den", "den</w>", "dense</w>", "dep", "depend", "dependent</w>", "der", "der</w>", "derived</w>", "ders</w>", "desc", "dev", "devast", "develop", "developed</w>", "development</w>", "dh", "di", "di,</w>", "di</w>", "dic", "dic</w>", "did</w>", "died</w>", "diff", "differ", "different</w>", "diffused</w>", "dified</w>", "diment</w>", "ding</w>", "direc", "directly</w>", "dis", "discrimin", "discriminat", "discriminator", "diseas", "dish", "dishes</w>", "disp", "disput", "disputed</w>", "disputes</w>", "dist", "distinc", "dition", "dition</w>", "ditional</w>", "div", "divers", "diverse</w>", "diversity.</w>", "diversity</w>", "divor", "dle</w>", "do</w>", "doc", "dom", "domestic</w>", "domin", "dominance</w>", "dominion</w>", "down", "down</w>", "dr", "dra", "drain</w>", "draw", "drew</w>", "dri", "ds,</w>", "ds</w>", "du", "duc", "duced</w>", "due</w>", "during</w>", "dyn", "e", "e\"</w>", "e's</w>", "e,</w>", "e-", "e-dr", "e-dram", "e-dramas</w>", "e.</w>", "e:</w>", "e;</w>", "e</w>", "ea", "ea.</w>", "eal", "eal</w>", "ealth</w>", "ean</w>", "ear", "ear-", "ear</w>", "eared</w>", "earli", "earliest</w>", "early</w>", "eas", "eas</w>", "east", "east,</w>", "east.</w>", "east</w>", "eastern</w>", "eb", "ec", "ech", "econ", "econom", "economic</w>", "economies</w>", "economy,</w>", "economy.</w>", "economy</w>", "ect", "ected</w>", "ecting</w>", "ed", "ed,</w>", "ed.</w>", "ed</w>", "edi", "edic", "edic</w>", "edicts</w>", "edly</w>", "educ", "education</w>", "edul", "ee", "eed</w>", "ef", "effec", "efly</w>", "eg", "egates</w>", "eh", "ehru", "eig", "eigh", "eign</w>", "eir</w>", "either</w>", "el", "el</w>", "elec", "elected</w>", "election", "election,</w>", "election.</w>", "election</w>", "elections.</w>", "elections</w>", "electr", "elf", "elit", "elites,</w>", "elites</w>", "ell", "ellion</w>", "elop", "ely</w>", "em", "emb", "embly</w>", "emen", "ement", "ement</w>", "ements</w>", "emerg", "emerged</w>", "emission", "emoc", "emocrac", "emocracy.</w>", "emocratic</w>", "emp", "emper", "emperor</w>", "emphas", "empire</w>", "empl", "emple</w>", "employ", "employed</w>", "en", "en,</w>", "en</w>", "enac", "enacted</w>", "enc", "ence.</w>", "ence</w>", "ency,</w>", "end", "end</w>", "endang", "endangered</w>", "ended</w>", "endem", "ending</w>", "endments</w>", "eneral</w>", "energy</w>", "eng", "ength</w>", "enn", "ensu", "ent", "ent,</w>", "ent</w>", "enter</w>", "ently</w>", "ents</w>", "eograph", "ep", "ep</w>", "epublic</w>", "equ", "er", "er,</w>", "er.</w>", "er</w>", "era</w>", "eral", "eral</w>", "erala</w>", "eration</w>", "erc", "ere</w>", "ereal</w>", "ered</w>", "erg", "ergency,</w>", "ergy</w>", "eri", "ering</w>", "erly</w>", "ern", "ern</w>", "ers", "ers,</w>", "ers.</w>", "ers</w>", "ersi", "ert</w>", "es", "es)</w>", "es,</w>", "es.</w>", "es:</w>", "es;</w>", "es</w>", "ese,</w>", "ese</w>", "eser", "especially</w>", "ess", "ess</w>", "essent", "essential</w>", "est", "est-", "est</w>", "establ", "established</w>", "estic</w>", "estim", "estimated</w>", "es—", "et", "et</w>", "eta", "eter", "eth", "ethical</w>", "ethn", "etic</w>", "ets</w>", "ett", "etween</w>", "ety</w>", "ev", "eval</w>", "event", "eventually</w>", "ever", "everal</w>", "every", "every</w>", "everyday</w>", "ew", "ex", "ex</w>", "exampl", "example,</w>", "exc", "excav", "excavated</w>", "exchang", "exchange</w>", "exec", "execut", "executive</w>", "exerc", "existing</w>", "exp", "expand", "expanding</w>", "expans", "export", "exported</w>", "exports.</w>", "exports</w>", "expres", "ext", "extant</w>", "exten", "extend", "extends</w>", "extensively</w>", "extern", "external</w>", "extinc", "extremely</w>", "ey</w>", "f", "f</w>", "fac", "fact", "factor</w>", "fall</w>", "fam", "famil", "families</w>", "far", "far-", "far</w>", "farm", "fash", "fast", "fast</w>", "fav", "fe", "feat", "feated.</w>", "feature</w>", "features</w>", "fed", "federal</w>", "fem", "females</w>", "fer", "fest", "ff", "ffa", "ffair", "ffec", "fi", "fic", "fied</w>", "fig", "figure", "figures</w>", "fil", "fin", "fir", "first</w>", "fish</w>", "five-year</w>", "five</w>", "fl", "flank", "flour", "flow</w>", "flowering</w>", "foeticide,</w>", "fol", "folk</w>", "follow", "following</w>", "food</w>", "for", "for</w>", "forc", "fore</w>", "foreign</w>", "forest", "forest,</w>", "forest</w>", "forests,</w>", "form", "form,</w>", "form</w>", "formal</w>", "formally</w>", "formed</w>", "forms.</w>", "forms</w>", "fort", "fortable</w>", "fortified</w>", "foun", "found", "found</w>", "four</w>", "frame", "fre", "from</w>", "ft</w>", "fter</w>", "fundamental</w>", "further</w>", "g", "g</w>", "ga", "gained</w>", "gan", "gar", "garlic,</w>", "gas</w>", "gave</w>", "ge", "ge</w>", "gen", "genc", "gend", "gender</w>", "gener", "general</w>", "generally,</w>", "generated</w>", "geograph", "gh", "gigaw", "give</w>", "gl", "glob", "global</w>", "go", "gods</w>", "goods</w>", "govern", "government", "government,</w>", "government</w>", "governments</w>", "gr", "gra", "gradi", "gradu", "gradually</w>", "grand", "gre", "great", "great</w>", "greater</w>", "green", "greenhouse</w>", "grew</w>", "gro", "grou", "group", "group</w>", "grow", "grow</w>", "growing</w>", "growth</w>", "guard</w>", "h", "h,</w>", "h</w>", "ha", "ha,</w>", "hab", "habit", "habitat</w>", "had</w>", "hal", "half</w>", "ham", "har", "harkh", "harlal</w>", "has</w>", "hat", "hau</w>", "have</w>", "having</w>", "hea", "head</w>", "headed</w>", "hel", "held</w>", "hen", "henjo-daro,</w>", "her", "her</w>", "hered</w>", "heredi", "hereditary</w>", "hi,</w>", "hi</w>", "hig", "high", "high</w>", "highest</w>", "highly</w>", "his</w>", "histor", "historians</w>", "historical</w>", "historically</w>", "history,</w>", "hol", "hom", "hor", "hotspot", "hous", "house</w>", "however,</w>", "hubs</w>", "hum", "human</w>", "humans</w>", "hunter-gatherers,</w>", "hy", "hymns</w>", "i", "i)</w>", "i,</w>", "i-", "i.</w>", "i</w>", "ial</w>", "ially</w>", "ian</w>", "ians</w>", "iant</w>", "ib", "ibet", "ic", "ic,</w>", "ic.</w>", "ic</w>", "ical,</w>", "ical</w>", "ically,</w>", "ically</w>", "ice</w>", "ich</w>", "ici", "icians</w>", "icl", "icle</w>", "icles</w>", "icob", "ics,</w>", "ics.</w>", "ics</w>", "id", "iddle</w>", "ide", "ide</w>", "idence</w>", "idu", "iduous</w>", "ied</w>", "ief", "ient</w>", "ies,</w>", "ies.</w>", "ies</w>", "if", "ified</w>", "ig", "ig</w>", "igaw", "iger</w>", "igh", "ight", "ight</w>", "ih", "ii", "ik", "il", "il</w>", "ild", "ild</w>", "ile</w>", "ilitated</w>", "ility</w>", "ill", "ill</w>", "im", "imal", "imal</w>", "imalay", "immediately</w>", "imperial</w>", "implement", "important</w>", "improv", "imultaneously,</w>", "in", "in,</w>", "in.</w>", "in</w>", "inated</w>", "inc", "ince</w>", "incl", "includ", "include</w>", "includes</w>", "including</w>", "income</w>", "increas", "increased</w>", "increasing</w>", "increasingly</w>", "independ", "independence</w>", "independent</w>", "indh", "indi", "indigen", "indigenous</w>", "indu", "industr", "industrial</w>", "industry</w>", "ine,</w>", "ine.</w>", "ine</w>", "inequ", "inequalit", "inequality,</w>", "ines,</w>", "inf", "infec", "infl", "influ", "influenc", "influence</w>", "influenced</w>", "influences</w>", "inform", "information</w>", "ing", "ing,</w>", "ing.</w>", "ing</w>", "ingly</w>", "ings</w>", "ining</w>", "initi", "inn", "innings</w>", "innov", "inter", "international</w>", "intervention</w>", "into</w>", "intro", "introduc", "introduced</w>", "inv", "involved</w>", "involving</w>", "io", "iodiversity</w>", "ion", "ion,</w>", "ion.</w>", "ion</w>", "ioned</w>", "ions,</w>", "ions</w>", "iosphere</w>", "ip", "ir", "ir</w>", "ira,</w>", "ire", "ire</w>", "is", "is.</w>", "is</w>", "isans</w>", "isation,</w>", "isation.</w>", "isation</w>", "ise</w>", "ised</w>", "ises</w>", "ish", "ish</w>", "ished</w>", "ising</w>", "isions</w>", "ism", "ism,</w>", "ism.</w>", "ism</w>", "isol", "isolation</w>", "ission", "ist", "ist</w>", "istic</w>", "isting</w>", "istor", "istory</w>", "ists</w>", "it", "it</w>", "itary</w>", "itated</w>", "ite</w>", "itect", "ited</w>", "ith", "ither</w>", "iti", "ities</w>", "its</w>", "itt", "ity,</w>", "ity.</w>", "ity</w>", "iv", "iv</w>", "iva</w>", "ive-", "ive-year</w>", "ive</w>", "ived</w>", "ively</w>", "ivers", "ives</w>", "ivil", "ivil</w>", "iving</w>", "j", "jac", "jack", "jant", "jay", "jayanag", "jayanagara</w>", "jec", "ject</w>", "jo-daro,</w>", "join", "jor</w>", "jurisdiction</w>", "just</w>", "k", "k,</w>", "k</w>", "kam", "kamee", "kameez</w>", "kat", "ked</w>", "ken", "kening</w>", "key</w>", "kh", "kil", "kill", "kilometres</w>", "king", "king</w>", "kingdom", "kingdoms</w>", "kn", "known</w>", "krit", "ks</w>", "kurta</w>", "l", "l</w>", "la", "lab", "lac", "lack", "lackbu", "lackbuc", "lade", "laim", "laiming</w>", "lain", "lal</w>", "lam", "land", "land</w>", "lands,</w>", "lands</w>", "languag", "language\"</w>", "language,</w>", "language</w>", "languages,</w>", "languages.</w>", "languages</w>", "lar", "larg", "large-", "large-scale</w>", "large</w>", "largely</w>", "larger</w>", "largest", "largest.</w>", "largest</w>", "last", "last</w>", "lasted</w>", "lat", "late</w>", "later,</w>", "later</w>", "latit", "latter</w>", "law", "laws</w>", "lay", "lay</w>", "layer</w>", "ld</w>", "le", "le.</w>", "le</w>", "lea", "leader", "leader,</w>", "leading</w>", "led</w>", "left</w>", "leg", "leges</w>", "legis", "legislat", "less</w>", "lev", "level", "li", "liance</w>", "liber", "liberal", "liberalisation</w>", "lic,</w>", "lied</w>", "lief", "lies</w>", "lif", "life,</w>", "life</w>", "lig", "ligion</w>", "lik", "lim", "limate</w>", "limatic</w>", "limited</w>", "lin", "line</w>", "ling", "lit", "liter", "literac", "literacy,</w>", "literacy</w>", "literary</w>", "literat", "live</w>", "lived</w>", "living</w>", "loc", "local</w>", "long", "long-", "long</w>", "longer</w>", "loos", "loose-", "loose-kn", "loose-knit</w>", "loss</w>", "low", "low</w>", "lower</w>", "lowering</w>", "lowing</w>", "ly,</w>", "ly</w>", "m", "m</w>", "ma", "ma</w>", "made</w>", "main", "main</w>", "mainly</w>", "maint", "maj", "major</w>", "majority</w>", "mak", "make</w>", "makes</w>", "mal", "males.</w>", "mamm", "mammals,</w>", "man", "mand", "manu", "manuscrip", "manuscript</w>", "many</w>", "maput", "mar", "marg", "margin", "margins</w>", "marit", "mark", "marked</w>", "market", "market</w>", "markets.</w>", "marri", "marriages</w>", "married</w>", "marshy</w>", "mary</w>", "mas", "mat", "materi", "mathemat", "mathematical</w>", "mathematicians</w>", "mathematics</w>", "may</w>", "me", "me</w>", "mean", "meaning</w>", "meas", "meat,</w>", "meat</w>", "med", "medi", "mediately</w>", "medic", "medieval</w>", "mega", "megadiverse</w>", "mem", "member</w>", "men,</w>", "men</w>", "ment", "ment.</w>", "ment</w>", "mental</w>", "ments</w>", "mer", "merch", "mi", "mi)</w>", "mid", "mid-", "middle</w>", "mig", "migration</w>", "mil", "military</w>", "mill", "millen", "millenni", "millennium", "millennium</w>", "million", "million-", "million</w>", "min", "minist", "minister.</w>", "minister</w>", "ministers.</w>", "mns</w>", "mo", "mod", "model</w>", "modern", "modern</w>", "moist</w>", "mon", "monsoon", "monsoon</w>", "monweal", "mor", "more</w>", "most</w>", "mov", "movement", "movement.</w>", "movement</w>", "mp", "ms</w>", "much</w>", "mult", "multi-", "mus", "music.</w>", "music</w>", "n", "n</w>", "na", "name</w>", "nar", "narr", "nat", "natal</w>", "nation", "nation</w>", "national", "national</w>", "nationalist</w>", "ne", "ne</w>", "near</w>", "ned</w>", "neigh", "neighb", "neighbour", "net", "new</w>", "nex", "next</w>", "ni", "nific", "nin", "no</w>", "nolog", "nomin", "nominal</w>", "non-", "non-Congress</w>", "non-co-", "nonviolent</w>", "nor", "north", "north,</w>", "north-", "north</w>", "northern</w>", "northwest.</w>", "not", "not</w>", "notable</w>", "notably</w>", "now</w>", "ns</w>", "nuclear</w>", "num", "number", "number</w>", "numbers,</w>", "numbers</w>", "numer", "o", "o,</w>", "o-", "o-d", "o-dar", "o-daro,</w>", "o.</w>", "o</w>", "oast", "ob", "oc", "occ", "occas", "occup", "occupation,</w>", "occurred</w>", "och", "oci", "od", "ods</w>", "oet", "oetici", "oeticide,</w>", "of", "of</w>", "off</w>", "offic", "office</w>", "official</w>", "often</w>", "og", "ogam", "ograph", "ographics</w>", "oin", "ok", "ok</w>", "ol", "ol</w>", "old</w>", "olde", "oldest</w>", "olit", "olitics</w>", "oll", "ollowing</w>", "olog", "ological</w>", "ologically</w>", "olut", "olved</w>", "olving</w>", "om", "om</w>", "ome</w>", "omet", "ometres</w>", "omin", "oming</w>", "omy</w>", "on", "on,</w>", "on-", "on</w>", "ond", "onds</w>", "ondwana,</w>", "one", "one</w>", "onesi", "ong", "ong</w>", "ongres", "oni", "onial</w>", "onic</w>", "only</w>", "onomet", "onset</w>", "onviolent</w>", "oo", "ood", "ood</w>", "oods</w>", "ook</w>", "ool", "oos", "op", "op</w>", "open</w>", "operation</w>", "opp", "or", "or</w>", "oral</w>", "orally</w>", "ord", "organ", "organisation</w>", "organised</w>", "orig", "origin", "original</w>", "originally</w>", "ority</w>", "orld</w>", "oroast", "oroastrianism</w>", "ors</w>", "ortion", "os", "osa,</w>", "ose</w>", "osed</w>", "osen</w>", "osi", "osing</w>", "osit", "oss</w>", "ost", "ost-", "ot", "ot</w>", "otec", "otech</w>", "oted</w>", "oth", "oth</w>", "other", "other</w>", "otion", "otion,</w>", "otspot", "ottom", "ou", "ouch", "oug", "ough", "ough</w>", "ought</w>", "oul", "ould</w>", "oun", "ound</w>", "our", "our</w>", "ourc", "ous", "ous</w>", "ously</w>", "out", "out</w>", "outh", "outh</w>", "outp", "ov", "ove</w>", "over", "over</w>", "overn", "overran</w>", "ovi", "oviet</w>", "ow", "ow,</w>", "ow</w>", "owards</w>", "owever", "owever,</w>", "owing</w>", "own", "own</w>", "oy", "oyal", "p", "p</w>", "pain", "paint", "painting,</w>", "paintings</w>", "par", "pared</w>", "parents</w>", "parli", "parliament", "parliament.</w>", "parliamentary</w>", "part", "part</w>", "partially</w>", "partic", "partit", "partition.</w>", "parts</w>", "party</w>", "pass", "passing</w>", "past", "pastoral</w>", "pat", "patron", "pay", "paye", "pe", "pea", "ped</w>", "pen", "penin", "penins", "peninsular</w>", "peop", "peopl", "people</w>", "per", "per</w>", "percent", "percentage</w>", "peri", "perial</w>", "perio", "period", "period.</w>", "period</w>", "persist", "pet", "ph", "pharm", "pharmac", "pharmace", "pharmaceutical</w>", "phas", "phib", "pil", "pl", "plac", "place</w>", "placed</w>", "plain", "plain</w>", "plains,</w>", "plant</w>", "plat", "plate</w>", "play", "played</w>", "ple</w>", "plement", "pli", "poin", "points</w>", "pol", "polic", "policies</w>", "policy</w>", "polit", "political</w>", "poll", "pollut", "pop", "pop</w>", "popul", "popular", "popular</w>", "population,</w>", "population</w>", "populous</w>", "por", "port", "port.</w>", "port</w>", "portant</w>", "ported</w>", "porter</w>", "portion</w>", "ports</w>", "pover", "poverty</w>", "pow", "power.</w>", "power</w>", "pr", "pract", "practic", "pre", "prec", "predomin", "pres", "presence</w>", "present</w>", "president,</w>", "prev", "prevent</w>", "pri", "primary</w>", "prime</w>", "princ", "prising</w>", "pro", "prob", "probably</w>", "proc", "process</w>", "produc", "produce</w>", "produced</w>", "projec", "prom", "promin", "prop", "protec", "protected</w>", "prov", "provid", "provided</w>", "proximately</w>", "pt", "public</w>", "pul", "pur", "push</w>", "put", "puts,</w>", "q", "qu", "r", "ra", "ra,</w>", "ra.</w>", "ra</w>", "rac", "ract", "rag", "rah", "raid", "rail", "railways,</w>", "ral</w>", "ram", "rame", "ran</w>", "rang", "range</w>", "ranges</w>", "rap", "raph", "rapid", "rat", "rate,</w>", "rate</w>", "rates</w>", "rather</w>", "ratic</w>", "ration</w>", "rative</w>", "ravidian</w>", "rdu", "re", "re-", "rea", "reach", "reached</w>", "read", "read</w>", "reak", "reas", "reasing", "reasing</w>", "reat", "reath", "rebellion</w>", "rec", "rece", "recent</w>", "reco", "recog", "recogn", "recor", "recorded</w>", "red</w>", "redi", "reduced</w>", "refer", "refl", "reform", "reg", "region", "region.</w>", "region</w>", "regional</w>", "regions.</w>", "regions</w>", "regist", "regul", "rel", "relat", "related</w>", "relations</w>", "relative</w>", "relief", "relig", "religi", "religion", "religion</w>", "religions</w>", "religious</w>", "rem", "remain", "remain</w>", "remained</w>", "remaining</w>", "remely</w>", "ren", "renew", "rep", "repe", "repeat", "repeatedly</w>", "repres", "rept", "republ", "republic</w>", "res", "res</w>", "reser", "resid", "residents</w>", "resourc", "respec", "respon", "resulting</w>", "returned</w>", "revenues</w>", "rew</w>", "rgan", "rgani", "rganization</w>", "ri", "ri,</w>", "ri</w>", "rian", "rianism</w>", "rib", "ribut", "ric", "rica</w>", "rich</w>", "rick", "ricket</w>", "ricult", "rig", "righ", "right</w>", "rights</w>", "ris", "rise</w>", "ristianity,</w>", "rit", "ritor", "river", "river</w>", "rivers,</w>", "riya,</w>", "ro", "roc", "rock</w>", "rol", "role</w>", "rolif", "roliferation</w>", "rom", "rom</w>", "romise</w>", "ron", "rop", "ross</w>", "rough", "roun", "ru", "rul", "rule,</w>", "rule.</w>", "rule</w>", "ruled</w>", "ruling</w>", "run", "rup", "rural</w>", "ry</w>", "s", "s'", "s)</w>", "s,</w>", "s.</w>", "s:</w>", "s;</w>", "s</w>", "sa", "saf", "safe", "safeguard</w>", "sar", "sari</w>", "sav", "savour", "savoury</w>", "saw</w>", "sc", "scale</w>", "scen", "sch", "schedul", "scheduled</w>", "school", "schools</w>", "sci", "scri", "scrimin", "scrip", "sculpt", "sculpture</w>", "se", "se</w>", "sea", "seals</w>", "seas", "seat", "seats</w>", "sec", "secon", "second", "second-", "second</w>", "sect", "sector</w>", "secular,</w>", "secular</w>", "sed</w>", "sediment</w>", "self", "self-", "separ", "separat", "sequ", "ser", "serv", "served</w>", "service</w>", "serving</w>", "set</w>", "sett", "setting</w>", "settl", "sever", "several</w>", "severely</w>", "sh", "sh</w>", "shal", "shar", "share</w>", "shared</w>", "shok", "shoka</w>", "shor", "shoul", "shoulder", "show</w>", "shy</w>", "si", "sia,</w>", "sid", "side</w>", "sident,</w>", "sider", "sider</w>", "sig", "sign", "signed</w>", "signific", "significant</w>", "sil", "simil", "similar</w>", "since</w>", "sing", "sing</w>", "single</w>", "sion", "sion</w>", "sist", "sit", "sites</w>", "sive</w>", "sively</w>", "six", "sli", "slow</w>", "sm", "small", "small</w>", "smo", "so", "so</w>", "soc", "soci", "social</w>", "societ", "sol", "sole</w>", "solid", "some</w>", "somet", "sometim", "sometimes</w>", "soon", "soon</w>", "south", "south,</w>", "south-", "south.</w>", "south</w>", "southern</w>", "sover", "sovereig", "sovereign", "sp", "spea", "speak", "speakers</w>", "speaking</w>", "spec", "speci", "specially</w>", "species,</w>", "species.</w>", "species</w>", "specific", "sph", "sphere</w>", "spic", "spite</w>", "spon", "spor", "sports</w>", "spot", "spread", "spread</w>", "spreading</w>", "ss", "st", "st</w>", "stand", "standar", "standardi", "standardised</w>", "stat", "state,</w>", "state</w>", "states</w>", "statu", "status</w>", "ste", "stea", "steam", "steamed</w>", "sti", "stian", "stianity,</w>", "stiff", "stit", "stituent</w>", "stitut", "stitution.</w>", "stitution</w>", "str", "stral", "stralian</w>", "stre", "strength</w>", "stres", "stri", "stri</w>", "strial</w>", "stric", "strong", "strongly</w>", "stru", "struc", "struct", "structure</w>", "stud", "sty", "styl", "style</w>", "styles,</w>", "styles</w>", "su", "sub", "subcontin", "subcontinent", "subcontinent,</w>", "subcontinent</w>", "subduc", "subsequ", "subsequent</w>", "subsequently</w>", "subst", "substant", "suc", "such</w>", "sultanat", "sultanate</w>", "sum", "summ", "summer</w>", "sump", "sup", "super", "supercontin", "supercontinent</w>", "suppl", "supplanted</w>", "suppli", "support.</w>", "supported</w>", "supre", "supreme</w>", "sur", "surv", "survives</w>", "sy", "syst", "system", "system,</w>", "system.</w>", "system</w>", "systems</w>", "t", "t,</w>", "t-", "t.</w>", "t</w>", "ta", "ta</w>", "tak", "tal", "tand", "tando", "tary</w>", "tax", "tbo", "te", "tea", "tech", "techni", "techniqu", "technolog", "technology</w>", "ted</w>", "tel", "temper", "templ", "temples</w>", "ten</w>", "ter", "ter,</w>", "ter</w>", "term", "term.</w>", "term</w>", "tern", "ternal</w>", "ternational</w>", "territor", "territorial</w>", "territories.</w>", "territories</w>", "test</w>", "tex", "text", "texts</w>", "th", "th-largest</w>", "th.</w>", "th</w>", "than</w>", "that,</w>", "that</w>", "the", "the</w>", "theast</w>", "their</w>", "them", "them.</w>", "them</w>", "themat", "then</w>", "theor", "ther", "ther</w>", "there", "there</w>", "therea", "these</w>", "they</w>", "thin</w>", "thir", "third-largest</w>", "third</w>", "this</w>", "thm", "thor", "thorn</w>", "those</w>", "though</w>", "thought</w>", "thr", "thre", "threat", "threaten", "threatened</w>", "three</w>", "through</w>", "tim", "time,</w>", "time</w>", "times</w>", "ting</w>", "tion", "tion.</w>", "tion</w>", "tions,</w>", "tions</w>", "tiv", "tive</w>", "tly</w>", "to</w>", "tod", "today</w>", "tom", "took</w>", "tor", "tors</w>", "tot", "total</w>", "town", "towns</w>", "tr", "tra", "tract",
[...]
